[PAD]	0
[UNK]	0
[eod]	0
▁t	-0
▁a	-1
he	-2
in	-3
re	-4
on	-5
▁the	-6
er	-7
at	-8
▁s	-9
▁o	-10
en	-11
▁c	-12
▁w	-13
is	-14
it	-15
or	-16
ed	-17
es	-18
an	-19
▁p	-20
al	-21
▁f	-22
▁b	-23
▁an	-24
ing	-25
▁of	-26
▁in	-27
ar	-28
▁d	-29
▁m	-30
ou	-31
ion	-32
ic	-33
▁to	-34
le	-35
▁and	-36
as	-37
ro	-38
▁h	-39
▁th	-40
ent	-41
ct	-42
▁re	-43
et	-44
▁n	-45
el	-46
st	-47
om	-48
▁l	-49
▁e	-50
▁T	-51
il	-52
▁I	-53
id	-54
--	-55
im	-56
ot	-57
ig	-58
▁g	-59
ve	-60
ut	-61
▁S	-62
▁(	-63
▁is	-64
ol	-65
▁A	-66
am	-67
ly	-68
us	-69
ac	-70
ation	-71
▁C	-72
▁for	-73
ur	-74
▁be	-75
ow	-76
ad	-77
▁that	-78
un	-79
▁on	-80
▁1	-81
▁st	-82
ver	-83
ul	-84
ith	-85
ay	-86
ce	-87
if	-88
se	-89
▁with	-90
ir	-91
▁con	-92
▁y	-93
▁he	-94
▁as	-95
▁The	-96
▁M	-97
ch	-98
ter	-99
od	-100
▁P	-101
▁it	-102
▁pro	-103
▁al	-104
ag	-105
▁v	-106
ab	-107
em	-108
um	-109
▁we	-110
▁$	-111
▁B	-112
▁2	-113
ri	-114
▁wh	-115
pe	-116
ate	-117
▁was	-118
▁de	-119
qu	-120
▁H	-121
▁W	-122
▁\	-123
res	-124
os	-125
ra	-126
----	-127
pp	-128
▁F	-129
▁"	-130
▁you	-131
her	-132
▁D	-133
ist	-134
est	-135
▁ex	-136
▁at	-137
ant	-138
▁com	-139
ht	-140
▁L	-141
▁or	-142
▁r	-143
▁R	-144
ld	-145
▁se	-146
00	-147
▁su	-148
▁=	-149
ers	-150
th	-151
iv	-152
ain	-153
▁by	-154
ess	-155
▁are	-156
oc	-157
and	-158
rom	-159
▁-	-160
ore	-161
ill	-162
ity	-163
op	-164
▁N	-165
ke	-166
oun	-167
▁not	-168
ment	-169
ction	-170
▁ha	-171
▁E	-172
ive	-173
end	-174
▁ne	-175
ort	-176
▁from	-177
pt	-178
▁G	-179
▁*	-180
red	-181
ight	-182
art	-183
▁this	-184
ud	-185
▁us	-186
ell	-187
▁un	-188
▁sh	-189
te	-190
ren	-191
▁ch	-192
ies	-193
pl	-194
▁O	-195
ial	-196
ould	-197
▁have	-198
ated	-199
▁In	-200
fe	-201
all	-202
our	-203
▁le	-204
ure	-205
▁0	-206
ine	-207
ge	-208
og	-209
▁<	-210
{\	-211
ust	-212
ich	-213
▁k	-214
per	-215
ack	-216
▁3	-217
ard	-218
ical	-219
ie	-220
▁can	-221
iz	-222
▁J	-223
▁j	-224
).	-225
**	-226
age	-227
ame	-228
▁whe	-229
ue	-230
ib	-231
up	-232
out	-233
▁ab	-234
der	-235
ome	-236
▁[	-237
▁tr	-238
able	-239
▁me	-240
ost	-241
▁cl	-242
▁res	-243
▁were	-244
▁pl	-245
ult	-246
▁im	-247
--------	-248
ide	-249
▁U	-250
cl	-251
ath	-252
▁comp	-253
ans	-254
ast	-255
ther	-256
ase	-257
▁ad	-258
act	-259
==	-260
▁{	-261
▁all	-262
ass	-263
ound	-264
▁his	-265
▁cont	-266
ak	-267
▁do	-268
ap	-269
ign	-270
01	-271
orm	-272
▁which	-273
ind	-274
ous	-275
oug	-276
▁int	-277
ip	-278
▁Th	-279
▁but	-280
ub	-281
ition	-282
one	-283
▁en	-284
ok	-285
ph	-286
ong	-287
▁ar	-288
▁4	-289
▁wor	-290
cc	-291
ice	-292
▁+	-293
ary	-294
ime	-295
▁dis	-296
);	-297
▁has	-298
ep	-299
ty	-300
du	-301
ress	-302
ens	-303
ence	-304
▁had	-305
ations	-306
▁out	-307
▁if	-308
▁qu	-309
▁}	-310
="	-311
_{	-312
int	-313
ia	-314
ne	-315
ru	-316
ff	-317
),	-318
ile	-319
▁5	-320
▁go	-321
av	-322
▁per	-323
ace	-324
ose	-325
ory	-326
ents	-327
▁one	-328
ber	-329
▁will	-330
ance	-331
▁K	-332
▁so	-333
ally	-334
▁they	-335
con	-336
ely	-337
▁up	-338
so	-339
ire	-340
ough	-341
ach	-342
ang	-343
▁ev	-344
ite	-345
are	-346
▁their	-347
ear	-348
▁app	-349
ry	-350
▁sa	-351
ions	-352
▁her	-353
rent	-354
▁part	-355
▁V	-356
▁more	-357
de	-358
form	-359
▁there	-360
port	-361
own	-362
▁my	-363
xt	-364
▁St	-365
▁/	-366
ord	-367
▁pre	-368
▁man	-369
▁li	-370
ll	-371
▁ag	-372
▁other	-373
▁19	-374
ors	-375
very	-376
ect	-377
ail	-378
▁been	-379
▁gr	-380
▁no	-381
▁sp	-382
ft	-383
vel	-384
▁'	-385
ake	-386
▁would	-387
}}	-388
0.	-389
▁your	-390
▁sc	-391
ook	-392
-1	-393
ree	-394
urn	-395
ys	-396
..	-397
lic	-398
ks	-399
▁It	-400
▁An	-401
▁$\	-402
▁who	-403
aus	-404
▁Y	-405
▁“	-406
we	-407
▁any	-408
▁also	-409
▁when	-410
▁0.	-411
ates	-412
low	-413
▁He	-414
▁time	-415
erv	-416
ata	-417
▁about	-418
math	-419
▁6	-420
ater	-421
▁&	-422
▁than	-423
wo	-424
▁ro	-425
eth	-426
▁ob	-427
▁over	-428
com	-429
ific	-430
ric	-431
▁its	-432
▁some	-433
."	-434
erm	-435
\]	-436
fter	-437
▁_	-438
▁bet	-439
ount	-440
[@	-441
▁spe	-442
ays	-443
cre	-444
▁fe	-445
▁she	-446
▁des	-447
ces	-448
▁This	-449
▁ass	-450
▁into	-451
▁te	-452
ple	-453
▁sy	-454
▁am	-455
irst	-456
ject	-457
ob	-458
▁dif	-459
ref	-460
}$	-461
ove	-462
rib	-463
▁gen	-464
ied	-465
lect	-466
ings	-467
▁We	-468
▁kn	-469
ov	-470
▁inter	-471
▁them	-472
▁Ch	-473
vers	-474
▁#	-475
gr	-476
fect	-477
hed	-478
clud	-479
reat	-480
row	-481
====	-482
▁Wh	-483
▁sub	-484
▁new	-485
iss	-486
▁off	-487
old	-488
▁said	-489
▁acc	-490
▁fun	-491
ced	-492
^{	-493
ian	-494
▁ret	-495
▁comm	-496
▁rec	-497
----------------	-498
▁mod	-499
▁under	-500
▁only	-501
▁two	-502
▁act	-503
▁pe	-504
▁7	-505
▁rel	-506
▁cons	-507
ish	-508
▁like	-509
ause	-510
▁get	-511
▁what	-512
ink	-513
▁may	-514
ual	-515
itt	-516
▁bl	-517
ious	-518
ark	-519
▁work	-520
▁our	-521
▁def	-522
ild	-523
ick	-524
ma	-525
▁bec	-526
get	-527
ps	-528
ular	-529
ons	-530
ck	-531
▁him	-532
▁em	-533
ative	-534
▁ind	-535
ade	-536
ert	-537
▁\[	-538
▁stud	-539
▁year	-540
▁pos	-541
igh	-542
▁reg	-543
▁add	-544
ring	-545
▁val	-546
▁8	-547
▁first	-548
▁pr	-549
pect	-550
▁trans	-551
19	-552
▁co	-553
▁ph	-554
▁could	-555
ug	-556
elf	-557
▁such	-558
▁form	-559
▁inv	-560
▁where	-561
ock	-562
iew	-563
cess	-564
ased	-565
▁201	-566
▁Re	-567
▁use	-568
ont	-569
▁i	-570
▁det	-571
▁then	-572
▁pres	-573
oint	-574
▁col	-575
hen	-576
▁la	-577
▁.	-578
ating	-579
▁just	-580
ode	-581
oth	-582
▁after	-583
▁these	-584
▁diffe	-585
▁how	-586
stem	-587
ient	-588
ood	-589
0,	-590
ween	-591
▁9	-592
▁att	-593
▁Se	-594
▁|	-595
▁sign	-596
▁rem	-597
ond	-598
▁exp	-599
ffect	-600
▁set	-601
▁prov	-602
▁pat	-603
ss	-604
les	-605
fore	-606
olog	-607
▁Un	-608
▁between	-609
ility	-610
▁did	-611
▁pol	-612
](	-613
}\	-614
▁fl	-615
▁//	-616
▁Let	-617
12	-618
▁need	-619
ise	-620
pro	-621
ict	-622
ution	-623
ix	-624
ta	-625
ople	-626
ident	-627
io	-628
▁fol	-629
type	-630
▁var	-631
1,	-632
▁cell	-633
▁result	-634
1.	-635
ize	-636
▁ac	-637
▁back	-638
oy	-639
rit	-640
rough	-641
▁supp	-642
▁used	-643
ange	-644
){	-645
10	-646
▁includ	-647
▁show	-648
fig	-649
▁sur	-650
▁sm	-651
ible	-652
.,	-653
▁know	-654
cept	-655
right	-656
ning	-657
fr	-658
▁num	-659
iel	-660
▁10	-661
ful	-662
als	-663
▁dist	-664
tern	-665
▁prob	-666
▁data	-667
▁[@	-668
▁return	-669
▁see	-670
▁ty	-671
▁cor	-672
▁class	-673
ments	-674
wn	-675
▁using	-676
cy	-677
▁should	-678
▁sim	-679
▁spec	-680
ourt	-681
",	-682
▁through	-683
▁most	-684
▁follow	-685
ues	-686
ruct	-687
▁inst	-688
▁fact	-689
...	-690
2.	-691
ctions	-692
its	-693
mer	-694
ER	-695
▁people	-696
▁200	-697
ited	-698
ined	-699
be	-700
</	-701
ublic	-702
ract	-703
▁end	-704
▁well	-705
ex	-706
the	-707
▁again	-708
▁system	-709
uring	-710
li	-711
▁because	-712
ins	-713
▁requ	-714
ics	-715
ull	-716
ures	-717
ox	-718
inal	-719
ateg	-720
uch	-721
▁ent	-722
▁**	-723
ax	-724
"}	-725
err	-726
▁const	-727
other	-728
▁produ	-729
▁Ne	-730
▁gener	-731
▁As	-732
ield	-733
,"	-734
ement	-735
)$	-736
ities	-737
▁For	-738
▁char	-739
pos	-740
▁ext	-741
▁each	-742
oup	-743
▁want	-744
ower	-745
▁look	-746
ized	-747
▁par	-748
ward	-749
▁even	-750
▁high	-751
-2	-752
▁different	-753
▁stat	-754
▁min	-755
cal	-756
imes	-757
to	-758
ily	-759
▁right	-760
ically	-761
ef	-762
▁:	-763
▁el	-764
//	-765
ms	-766
uc	-767
▁ap	-768
▁case	-769
cond	-770
]{	-771
▁effect	-772
▁now	-773
ever	-774
000	-775
▁And	-776
hes	-777
▁test	-778
▁long	-779
▁What	-780
▁ke	-781
▁way	-782
▁If	-783
ational	-784
▁does	-785
let	-786
▁every	-787
put	-788
(\	-789
ars	-790
▁Al	-791
▁make	-792
ool	-793
ger	-794
ork	-795
▁,	-796
led	-797
▁bu	-798
▁–	-799
riv	-800
.2	-801
▁same	-802
▁Q	-803
▁di	-804
()	-805
ator	-806
ec	-807
▁But	-808
▁Com	-809
ention	-810
▁before	-811
▁call	-812
In	-813
▁@	-814
15	-815
13	-816
cent	-817
▁cur	-818
],	-819
▁down	-820
2,	-821
sp	-822
▁very	-823
ting	-824
](#	-825
▁find	-826
▁aut	-827
ince	-828
▁years	-829
16	-830
ife	-831
gin	-832
IN	-833
rm	-834
▁inte	-835
ients	-836
▁both	-837
▁How	-838
▁mon	-839
rol	-840
ants	-841
ript	-842
▁function	-843
ared	-844
read	-845
air	-846
▁partic	-847
▁anal	-848
▁op	-849
sc	-850
▁found	-851
arch	-852
▁dec	-853
▁point	-854
▁those	-855
▁loc	-856
_{\	-857
▁med	-858
▁mat	-859
▁car	-860
frac	-861
ym	-862
ages	-863
▁incre	-864
ethod	-865
▁bel	-866
▁hand	-867
upp	-868
rest	-869
oci	-870
▁many	-871
aint	-872
pr	-873
way	-874
ines	-875
▁here	-876
▁ser	-877
▁don	-878
▁play	-879
ute	-880
▁est	-881
▁tra	-882
14	-883
velop	-884
->	-885
▁mem	-886
20	-887
▁being	-888
St	-889
▁pers	-890
▁che	-891
ann	-892
▁exam	-893
▁made	-894
par	-895
text	-896
▁et	-897
^2	-898
ases	-899
▁import	-900
ON	-901
▁z	-902
▁exper	-903
">	-904
▁dire	-905
▁number	-906
▁fil	-907
ature	-908
▁resp	-909
]\]	-910
▁appro	-911
▁tri	-912
▁gu	-913
▁Pro	-914
aking	-915
ave	-916
ason	-917
set	-918
val	-919
ank	-920
rence	-921
yl	-922
ven	-923
18	-924
AT	-925
▁x	-926
▁sol	-927
▁while	-928
▁ins	-929
▁str	-930
▁good	-931
over	-932
me	-933
▁hel	-934
▁own	-935
3.	-936
▁much	-937
▁public	-938
▁You	-939
▁process	-940
▁ra	-941
ale	-942
}{	-943
▁think	-944
ody	-945
▁rep	-946
eng	-947
▁18	-948
ense	-949
els	-950
▁1.	-951
▁prote	-952
ner	-953
▁lar	-954
gan	-955
oid	-956
ash	-957
▁read	-958
day	-959
]{}	-960
cer	-961
ained	-962
ively	-963
tt	-964
▁present	-965
ually	-966
ified	-967
========	-968
The	-969
ved	-970
25	-971
gg	-972
$\	-973
formation	-974
fl	-975
▁\[[@	-976
ism	-977
ather	-978
ng	-979
ired	-980
▁giv	-981
ression	-982
ought	-983
▁disc	-984
▁study	-985
app	-986
▁start	-987
17	-988
▁level	-989
ness	-990
▁three	-991
tr	-992
__	-993
▁second	-994
▁ref	-995
ategory	-996
ices	-997
min	-998
left	-999
▁develop	-1000
cul	-1001
▁court	-1002
▁som	-1003
▁gl	-1004
3,	-1005
view	-1006
arly	-1007
▁without	-1008
▁serv	-1009
line	-1010
▁equ	-1011
▁15	-1012
ES	-1013
ision	-1014
▁poss	-1015
▁value	-1016
igned	-1017
▁dep	-1018
ton	-1019
amb	-1020
▁She	-1021
▁On	-1022
alth	-1023
▁term	-1024
hip	-1025
any	-1026
▁report	-1027
▁during	-1028
▁br	-1029
▁==	-1030
amp	-1031
▁12	-1032
▁Tr	-1033
ument	-1034
ams	-1035
▁fr	-1036
▁support	-1037
▁av	-1038
ole	-1039
▁met	-1040
))	-1041
AR	-1042
self	-1043
4.	-1044
▁non	-1045
ality	-1046
ization	-1047
erg	-1048
uss	-1049
▁method	-1050
med	-1051
▁ant	-1052
alk	-1053
▁order	-1054
ier	-1055
ters	-1056
ffic	-1057
NA	-1058
ider	-1059
mathb	-1060
ah	-1061
▁perform	-1062
://	-1063
raph	-1064
ouse	-1065
CR	-1066
ane	-1067
lement	-1068
▁still	-1069
$.	-1070
32	-1071
▁De	-1072
4,	-1073
ists	-1074
▁small	-1075
ided	-1076
1)	-1077
til	-1078
▁cells	-1079
ross	-1080
$,	-1081
▁patients	-1082
▁cre	-1083
▁pa	-1084
yn	-1085
man	-1086
ron	-1087
▁let	-1088
dition	-1089
▁state	-1090
▁Ar	-1091
▁There	-1092
ially	-1093
oad	-1094
▁help	-1095
ency	-1096
ds	-1097
ving	-1098
▁line	-1099
▁appe	-1100
▁count	-1101
oh	-1102
▁must	-1103
▁group	-1104
az	-1105
▁desc	-1106
▁say	-1107
▁Le	-1108
▁activ	-1109
▁cle	-1110
ray	-1111
land	-1112
▁ed	-1113
',	-1114
▁prev	-1115
30	-1116
5,	-1117
▁run	-1118
br	-1119
▁last	-1120
▁(2	-1121
OR	-1122
of	-1123
▁New	-1124
▁Category	-1125
▁cent	-1126
▁err	-1127
▁wr	-1128
▁proble	-1129
▁u	-1130
▁against	-1131
oot	-1132
str	-1133
▁day	-1134
irc	-1135
▁signific	-1136
anc	-1137
▁Is	-1138
ts	-1139
▁name	-1140
▁expl	-1141
.”	-1142
ulation	-1143
":	-1144
aj	-1145
ability	-1146
▁take	-1147
▁oper	-1148
ify	-1149
▁lead	-1150
▁child	-1151
idence	-1152
less	-1153
▁struct	-1154
::	-1155
ished	-1156
aw	-1157
▁quest	-1158
▁fin	-1159
acter	-1160
_1	-1161
ST	-1162
▁Z	-1163
▁fam	-1164
▁dev	-1165
▁person	-1166
chn	-1167
meric	-1168
ames	-1169
▁16	-1170
EN	-1171
▁control	-1172
---	-1173
▁pur	-1174
▁vari	-1175
▁del	-1176
▁To	-1177
▁opt	-1178
▁They	-1179
▁proper	-1180
▁type	-1181
IT	-1182
que	-1183
ek	-1184
tic	-1185
▁conf	-1186
hat	-1187
eta	-1188
▁No	-1189
▁direct	-1190
▁Ex	-1191
ik	-1192
▁stand	-1193
▁hy	-1194
aim	-1195
▁!	-1196
▁Sh	-1197
▁20	-1198
▁inc	-1199
da	-1200
▁bre	-1201
▁dem	-1202
ource	-1203
▁post	-1204
abel	-1205
50	-1206
▁head	-1207
▁X	-1208
▁information	-1209
▁sl	-1210
ote	-1211
urther	-1212
ides	-1213
ysis	-1214
▁around	-1215
itive	-1216
▁iss	-1217
▁elect	-1218
**2	-1219
▁pass	-1220
ience	-1221
pha	-1222
▁Con	-1223
ination	-1224
▁meas	-1225
▁So	-1226
ium	-1227
ots	-1228
ets	-1229
▁open	-1230
rict	-1231
5.	-1232
11	-1233
ology	-1234
▁</	-1235
ured	-1236
▁tem	-1237
serv	-1238
▁life	-1239
und	-1240
▁cr	-1241
▁Ad	-1242
ior	-1243
ately	-1244
▁significant	-1245
arm	-1246
agn	-1247
ott	-1248
▁results	-1249
▁another	-1250
▁Cl	-1251
▁mult	-1252
atch	-1253
▁contin	-1254
-0	-1255
▁great	-1256
ission	-1257
▁might	-1258
ral	-1259
▁ident	-1260
Fig	-1261
▁rest	-1262
▁world	-1263
atic	-1264
▁2.	-1265
▁following	-1266
▁real	-1267
▁within	-1268
].	-1269
gen	-1270
ains	-1271
▁going	-1272
▁model	-1273
▁too	-1274
mathcal	-1275
▁However	-1276
7.	-1277
▁hum	-1278
▁lim	-1279
ural	-1280
▁determ	-1281
▁treat	-1282
ital	-1283
fer	-1284
sh	-1285
mb	-1286
ording	-1287
▁allow	-1288
ived	-1289
pec	-1290
aterial	-1291
▁199	-1292
▁es	-1293
▁since	-1294
("	-1295
lex	-1296
▁law	-1297
AL	-1298
7,	-1299
▁care	-1300
ittle	-1301
}(	-1302
ivers	-1303
duct	-1304
name	-1305
ration	-1306
eral	-1307
ething	-1308
▁try	-1309
_2	-1310
▁Americ	-1311
40	-1312
6.	-1313
,\	-1314
ional	-1315
▁adv	-1316
arn	-1317
work	-1318
akes	-1319
orn	-1320
▁interest	-1321
▁imp	-1322
ably	-1323
80	-1324
▁When	-1325
ways	-1326
▁occ	-1327
▁list	-1328
▁beh	-1329
not	-1330
▁condition	-1331
ves	-1332
▁mark	-1333
)\	-1334
▁power	-1335
▁sk	-1336
ackage	-1337
▁addition	-1338
▁turn	-1339
AN	-1340
▁sing	-1341
ential	-1342
ither	-1343
6,	-1344
ury	-1345
ently	-1346
?"	-1347
▁rece	-1348
▁example	-1349
▁All	-1350
▁current	-1351
CT	-1352
▁Ph	-1353
▁wom	-1354
▁seem	-1355
▁vis	-1356
att	-1357
▁—	-1358
▁few	-1359
resent	-1360
▁ve	-1361
alpha	-1362
▁ask	-1363
8,	-1364
iff	-1365
]\].	-1366
ives	-1367
iness	-1368
▁redu	-1369
bers	-1370
▁mean	-1371
▁(19	-1372
ule	-1373
▁bas	-1374
▁>	-1375
8.	-1376
▁field	-1377
▁$$\	-1378
chool	-1379
face	-1380
rop	-1381
nd	-1382
ead	-1383
ploy	-1384
/2	-1385
▁*/	-1386
▁respect	-1387
ga	-1388
▁never	-1389
thing	-1390
▁chang	-1391
▁given	-1392
def	-1393
ene	-1394
▁left	-1395
▁commun	-1396
▁place	-1397
▁less	-1398
▁rele	-1399
▁including	-1400
son	-1401
▁pop	-1402
▁something	-1403
cript	-1404
ends	-1405
ype	-1406
▁{#	-1407
rel	-1408
cur	-1409
▁At	-1410
▁low	-1411
▁Pl	-1412
▁typ	-1413
▁little	-1414
▁best	-1415
oub	-1416
▁happ	-1417
hor	-1418
▁associ	-1419
gram	-1420
▁bus	-1421
by	-1422
▁light	-1423
eter	-1424
▁invest	-1425
ised	-1426
▁13	-1427
ertain	-1428
▁cap	-1429
▁mot	-1430
ope	-1431
ml	-1432
▁hig	-1433
▁cal	-1434
osed	-1435
▁Be	-1436
▁pot	-1437
ining	-1438
▁techn	-1439
▁put	-1440
▁next	-1441
▁really	-1442
▁gover	-1443
▁arg	-1444
▁claim	-1445
▁old	-1446
9.	-1447
here	-1448
ength	-1449
ety	-1450
ling	-1451
▁month	-1452
▁based	-1453
ED	-1454
64	-1455
stand	-1456
▁top	-1457
vert	-1458
▁four	-1459
##	-1460
9,	-1461
oss	-1462
▁14	-1463
^{\	-1464
▁observ	-1465
▁applic	-1466
▁grow	-1467
▁sam	-1468
apt	-1469
▁home	-1470
ivid	-1471
ery	-1472
▁bo	-1473
AS	-1474
▁indic	-1475
ump	-1476
▁That	-1477
▁large	-1478
rap	-1479
aining	-1480
▁important	-1481
▁{\	-1482
lection	-1483
▁analysis	-1484
▁describ	-1485
ribut	-1486
ern	-1487
bs	-1488
▁health	-1489
_0	-1490
▁object	-1491
sec	-1492
▁particular	-1493
▁Fr	-1494
ret	-1495
icro	-1496
▁sugg	-1497
▁que	-1498
▁suggest	-1499
▁prof	-1500
24	-1501
ged	-1502
▁Sc	-1503
▁der	-1504
▁file	-1505
roll	-1506
,”	-1507
▁obt	-1508
▁leg	-1509
▁bi	-1510
▁come	-1511
ference	-1512
ari	-1513
▁govern	-1514
inc	-1515
▁sit	-1516
▁change	-1517
▁Cal	-1518
▁common	-1519
uro	-1520
▁den	-1521
reg	-1522
▁men	-1523
for	-1524
arget	-1525
▁fre	-1526
▁water	-1527
▁above	-1528
▁bro	-1529
abl	-1530
ina	-1531
ended	-1532
reen	-1533
1}	-1534
35	-1535
ccess	-1536
60	-1537
ird	-1538
ocument	-1539
por	-1540
▁conne	-1541
aps	-1542
▁mov	-1543
ambda	-1544
▁sw	-1545
▁better	-1546
▁eas	-1547
1-	-1548
ats	-1549
****	-1550
▁path	-1551
elta	-1552
▁self	-1553
▁got	-1554
▁--	-1555
34	-1556
▁ide	-1557
▁17	-1558
();	-1559
▁dr	-1560
bl	-1561
▁vers	-1562
ilar	-1563
mun	-1564
ID	-1565
▁belie	-1566
_\	-1567
plic	-1568
▁whether	-1569
hib	-1570
▁view	-1571
▁fail	-1572
▁These	-1573
LE	-1574
▁product	-1575
▁hist	-1576
unt	-1577
veral	-1578
▁Supp	-1579
▁Col	-1580
▁things	-1581
amma	-1582
isk	-1583
ification	-1584
▁App	-1585
▁days	-1586
▁least	-1587
ples	-1588
pped	-1589
▁position	-1590
▁character	-1591
▁record	-1592
▁##	-1593
aring	-1594
ten	-1595
IS	-1596
▁expect	-1597
RE	-1598
▁hard	-1599
▁evidence	-1600
3)	-1601
new	-1602
ware	-1603
▁problem	-1604
▁possible	-1605
ctor	-1606
ream	-1607
▁Gr	-1608
▁consider	-1609
▁invol	-1610
▁having	-1611
▁reason	-1612
▁mar	-1613
onse	-1614
▁vol	-1615
IC	-1616
opy	-1617
▁known	-1618
rt	-1619
▁thought	-1620
▁side	-1621
▁opp	-1622
ault	-1623
▁rese	-1624
▁until	-1625
▁United	-1626
▁size	-1627
▁called	-1628
▁US	-1629
action	-1630
▁tot	-1631
▁avail	-1632
▁Bl	-1633
mu	-1634
ask	-1635
▁else	-1636
▁always	-1637
▁build	-1638
ending	-1639
▁mus	-1640
▁represent	-1641
▁Res	-1642
▁question	-1643
den	-1644
▁impro	-1645
22	-1646
▁Sp	-1647
▁due	-1648
ormal	-1649
ien	-1650
ho	-1651
htt	-1652
aces	-1653
▁local	-1654
co	-1655
oor	-1656
▁free	-1657
rain	-1658
label	-1659
iod	-1660
▁give	-1661
▁cy	-1662
AC	-1663
▁organ	-1664
igma	-1665
uck	-1666
▁treatment	-1667
37	-1668
▁rad	-1669
▁prom	-1670
ances	-1671
ij	-1672
▁1,	-1673
acy	-1674
▁won	-1675
▁div	-1676
▁individ	-1677
▁big	-1678
▁net	-1679
au	-1680
▁0.0	-1681
▁TH	-1682
imal	-1683
iron	-1684
▁shown	-1685
ological	-1686
ET	-1687
▁human	-1688
ajor	-1689
▁init	-1690
rences	-1691
vent	-1692
bar	-1693
ison	-1694
38	-1695
36	-1696
▁sum	-1697
play	-1698
▁didn	-1699
▁cour	-1700
▁further	-1701
▁feel	-1702
▁main	-1703
alse	-1704
mathbb	-1705
▁later	-1706
▁single	-1707
though	-1708
▁keep	-1709
39	-1710
▁Ind	-1711
etic	-1712
▁book	-1713
epend	-1714
▁Or	-1715
▁offic	-1716
▁previous	-1717
outh	-1718
$$	-1719
▁away	-1720
ung	-1721
▁30	-1722
▁3.	-1723
ograph	-1724
sel	-1725
▁%	-1726
▁Court	-1727
▁family	-1728
pone	-1729
/(	-1730
▁100	-1731
part	-1732
usion	-1733
▁comb	-1734
▁expression	-1735
nal	-1736
ush	-1737
▁orig	-1738
ait	-1739
▁several	-1740
▁either	-1741
▁true	-1742
▁/*	-1743
▁pred	-1744
che	-1745
▁ey	-1746
=\	-1747
inf	-1748
27	-1749
raw	-1750
aut	-1751
▁program	-1752
▁similar	-1753
}_{	-1754
▁One	-1755
ready	-1756
▁circ	-1757
('	-1758
Re	-1759
▁times	-1760
ift	-1761
▁individual	-1762
▁code	-1763
▁lik	-1764
itor	-1765
begin	-1766
▁provide	-1767
▁general	-1768
atory	-1769
pi	-1770
▁far	-1771
▁States	-1772
uff	-1773
▁11	-1774
▁pay	-1775
iment	-1776
ered	-1777
▁jud	-1778
▁ele	-1779
ressed	-1780
ser	-1781
ember	-1782
▁material	-1783
▁available	-1784
▁employ	-1785
▁cost	-1786
▁abs	-1787
▁able	-1788
add	-1789
▁After	-1790
enn	-1791
ched	-1792
▁fri	-1793
ued	-1794
usep	-1795
resp	-1796
iple	-1797
▁along	-1798
indow	-1799
org	-1800
▁means	-1801
col	-1802
▁body	-1803
aligned	-1804
45	-1805
▁With	-1806
eb	-1807
go	-1808
▁priv	-1809
▁cho	-1810
iversity	-1811
mon	-1812
}$$	-1813
0000	-1814
usepackage	-1815
ergy	-1816
▁full	-1817
It	-1818
▁Mar	-1819
ohn	-1820
▁week	-1821
ume	-1822
angle	-1823
oups	-1824
▁move	-1825
ler	-1826
▁vi	-1827
▁sequ	-1828
▁short	-1829
▁art	-1830
▁children	-1831
aken	-1832
▁error	-1833
alf	-1834
28	-1835
▁phys	-1836
Con	-1837
▁plan	-1838
ored	-1839
▁business	-1840
cont	-1841
▁though	-1842
▁diff	-1843
29	-1844
▁values	-1845
201	-1846
▁school	-1847
▁infl	-1848
▁sure	-1849
▁understand	-1850
];	-1851
ours	-1852
▁specific	-1853
▁higher	-1854
itted	-1855
▁period	-1856
▁project	-1857
▁)	-1858
\[	-1859
▁inf	-1860
phi	-1861
ering	-1862
AP	-1863
enc	-1864
osp	-1865
▁war	-1866
▁Mr	-1867
▁among	-1868
▁25	-1869
idth	-1870
ocial	-1871
▁studies	-1872
▁certain	-1873
ister	-1874
70	-1875
▁My	-1876
▁area	-1877
▁sat	-1878
▁game	-1879
orth	-1880
▁major	-1881
}^{	-1882
▁already	-1883
ising	-1884
2)	-1885
▁super	-1886
▁tell	-1887
▁upon	-1888
Pro	-1889
▁port	-1890
ley	-1891
▁sent	-1892
ux	-1893
▁design	-1894
▁key	-1895
▁government	-1896
69	-1897
-00	-1898
▁param	-1899
▁pri	-1900
empt	-1901
oper	-1902
back	-1903
▁why	-1904
▁htt	-1905
▁lay	-1906
▁hold	-1907
▁cases	-1908
lected	-1909
ney	-1910
▁standard	-1911
▁action	-1912
iving	-1913
illion	-1914
sw	-1915
▁dise	-1916
cle	-1917
▁often	-1918
yle	-1919
▁ben	-1920
ustom	-1921
olution	-1922
▁prim	-1923
▁review	-1924
sum	-1925
▁exist	-1926
▁fore	-1927
▁coun	-1928
mission	-1929
▁subject	-1930
ai	-1931
mit	-1932
oney	-1933
75	-1934
▁total	-1935
urs	-1936
side	-1937
▁enough	-1938
lambda	-1939
▁access	-1940
▁came	-1941
ape	-1942
rist	-1943
ries	-1944
▁crit	-1945
eps	-1946
▁Te	-1947
fficient	-1948
▁done	-1949
▁told	-1950
div	-1951
▁however	-1952
aster	-1953
ables	-1954
▁rate	-1955
Cl	-1956
▁mass	-1957
ges	-1958
▁sens	-1959
▁mom	-1960
ounds	-1961
ried	-1962
▁strong	-1963
▁`	-1964
data	-1965
erc	-1966
▁defend	-1967
ubl	-1968
▁team	-1969
▁See	-1970
▁pract	-1971
utes	-1972
▁trial	-1973
▁Then	-1974
▁thing	-1975
},	-1976
▁neg	-1977
opt	-1978
▁target	-1979
ique	-1980
RO	-1981
chan	-1982
▁women	-1983
▁manag	-1984
ament	-1985
▁kind	-1986
▁success	-1987
▁space	-1988
ands	-1989
▁lot	-1990
26	-1991
▁levels	-1992
▁press	-1993
**3	-1994
most	-1995
▁dom	-1996
sq	-1997
▁enc	-1998
rem	-1999
▁says	-2000
▁24	-2001
▁associated	-2002
▁eng	-2003
▁mil	-2004
▁event	-2005
▁course	-2006
▁polit	-2007
▁fac	-2008
ores	-2009
▁discuss	-2010
▁investig	-2011
▁lo	-2012
▁${\	-2013
▁air	-2014
▁energy	-2015
▁took	-2016
▁198	-2017
asing	-2018
▁By	-2019
ibility	-2020
ogn	-2021
uit	-2022
▁En	-2023
▁caus	-2024
▁John	-2025
▁sal	-2026
LL	-2027
▁ver	-2028
99	-2029
cted	-2030
ivity	-2031
key	-2032
▁log	-2033
▁mor	-2034
▁seen	-2035
sequ	-2036
▁age	-2037
▁reported	-2038
AM	-2039
▁phot	-2040
▁Co	-2041
▁ple	-2042
▁room	-2043
▁repl	-2044
▁author	-2045
Ex	-2046
▁response	-2047
4)	-2048
▁Suppose	-2049
Ch	-2050
hy	-2051
uation	-2052
▁State	-2053
mod	-2054
▁gre	-2055
▁require	-2056
ids	-2057
{{\	-2058
verage	-2059
48	-2060
rug	-2061
ibr	-2062
hing	-2063
ribution	-2064
aug	-2065
iver	-2066
ories	-2067
▁bar	-2068
af	-2069
▁toget	-2070
▁together	-2071
▁amount	-2072
viron	-2073
▁lower	-2074
▁conv	-2075
ew	-2076
▁required	-2077
uf	-2078
▁bit	-2079
▁account	-2080
▁writ	-2081
})	-2082
▁groups	-2083
ators	-2084
▁final	-2085
▁check	-2086
65	-2087
▁early	-2088
▁==========	-2089
▁once	-2090
ival	-2091
▁American	-2092
dex	-2093
conom	-2094
▁Can	-2095
mm	-2096
▁aff	-2097
▁making	-2098
itle	-2099
▁activity	-2100
▁image	-2101
▁May	-2102
▁vir	-2103
▁Fig	-2104
▁development	-2105
▁across	-2106
▁compared	-2107
▁ann	-2108
ians	-2109
table	-2110
ception	-2111
▁inj	-2112
▁working	-2113
▁terms	-2114
▁comput	-2115
▁potential	-2116
95	-2117
▁include	-2118
23	-2119
bo	-2120
cd	-2121
ension	-2122
ocus	-2123
cret	-2124
-\	-2125
ION	-2126
▁([@	-2127
▁necess	-2128
osis	-2129
▁cult	-2130
▁void	-2131
ened	-2132
aintiff	-2133
▁2*	-2134
▁text	-2135
mathbf	-2136
▁Eng	-2137
▁micro	-2138
90	-2139
Name	-2140
stit	-2141
▁ear	-2142
]).	-2143
AD	-2144
▁Pr	-2145
▁Gen	-2146
inter	-2147
clude	-2148
▁face	-2149
angu	-2150
rodu	-2151
▁night	-2152
essage	-2153
▁went	-2154
▁([	-2155
▁doub	-2156
▁past	-2157
IG	-2158
▁range	-2159
▁house	-2160
▁issue	-2161
atures	-2162
▁risk	-2163
▁Car	-2164
use	-2165
iction	-2166
ystem	-2167
ption	-2168
.'	-2169
▁detail	-2170
mber	-2171
):	-2172
▁become	-2173
100	-2174
▁tw	-2175
beta	-2176
▁death	-2177
▁University	-2178
pm	-2179
▁relations	-2180
▁talk	-2181
iation	-2182
▁Me	-2183
arrow	-2184
mp	-2185
▁provided	-2186
▁described	-2187
ude	-2188
▁conditions	-2189
▁4.	-2190
▁establ	-2191
^\	-2192
▁...	-2193
▁frequ	-2194
▁50	-2195
▁complet	-2196
ones	-2197
ection	-2198
medi	-2199
▁±	-2200
sub	-2201
eters	-2202
ilon	-2203
lete	-2204
▁Br	-2205
33	-2206
▁asked	-2207
▁changes	-2208
ee	-2209
▁effects	-2210
▁exc	-2211
no	-2212
atter	-2213
▁separ	-2214
SE	-2215
ources	-2216
▁according	-2217
umn	-2218
OU	-2219
78	-2220
var	-2221
▁user	-2222
une	-2223
▁surface	-2224
▁ever	-2225
▁tre	-2226
▁doesn	-2227
istic	-2228
▁months	-2229
0.0	-2230
respond	-2231
imate	-2232
▁respons	-2233
▁increased	-2234
▁mechan	-2235
▁observed	-2236
uture	-2237
68	-2238
ony	-2239
▁section	-2240
▁Not	-2241
▁red	-2242
▁measure	-2243
▁complex	-2244
▁research	-2245
▁love	-2246
▁source	-2247
▁dri	-2248
sigma	-2249
▁cannot	-2250
▁increase	-2251
"}).	-2252
▁-2	-2253
▁role	-2254
iter	-2255
▁service	-2256
▁conduct	-2257
▁percent	-2258
▁company	-2259
▁soft	-2260
aced	-2261
▁toward	-2262
▁compon	-2263
▁rather	-2264
▁id	-2265
▁Rep	-2266
▁ep	-2267
▁0,	-2268
ava	-2269
▁others	-2270
▁country	-2271
OT	-2272
▁break	-2273
▁regard	-2274
▁cou	-2275
▁particip	-2276
▁base	-2277
▁meet	-2278
icy	-2279
-3	-2280
▁II	-2281
▁structure	-2282
Type	-2283
eq	-2284
▁More	-2285
head	-2286
▁Coun	-2287
▁yet	-2288
▁content	-2289
▁corre	-2290
▁signal	-2291
▁clear	-2292
oll	-2293
▁IN	-2294
▁factors	-2295
ino	-2296
▁Pat	-2297
▁ce	-2298
Th	-2299
▁‘	-2300
▁pick	-2301
▁third	-2302
▁q	-2303
▁protein	-2304
irm	-2305
amm	-2306
▁mind	-2307
▁normal	-2308
hem	-2309
ixed	-2310
idd	-2311
▁agre	-2312
bib	-2313
2}	-2314
AG	-2315
▁version	-2316
vironment	-2317
▁calcul	-2318
ceed	-2319
▁Am	-2320
ground	-2321
▁card	-2322
▁site	-2323
gment	-2324
rix	-2325
▁land	-2326
▁five	-2327
▁blood	-2328
roid	-2329
▁cut	-2330
▁money	-2331
ucle	-2332
▁quant	-2333
▁limit	-2334
▁Do	-2335
elt	-2336
▁doing	-2337
▁temper	-2338
leg	-2339
ules	-2340
47	-2341
\_	-2342
▁syn	-2343
ober	-2344
▁performed	-2345
ogen	-2346
▁whole	-2347
itch	-2348
unction	-2349
▁clin	-2350
illed	-2351
minist	-2352
▁prior	-2353
▁taken	-2354
▁job	-2355
ependent	-2356
▁multiple	-2357
▁flow	-2358
ortun	-2359
▁matter	-2360
test	-2361
order	-2362
dd	-2363
67	-2364
▁below	-2365
▁shows	-2366
200	-2367
▁showed	-2368
DE	-2369
▁correspond	-2370
▁various	-2371
ey	-2372
equ	-2373
▁social	-2374
ache	-2375
▁request	-2376
▁2,	-2377
▁Ste	-2378
sqrt	-2379
ww	-2380
▁deb	-2381
artment	-2382
raft	-2383
1]	-2384
Id	-2385
time	-2386
▁His	-2387
5)	-2388
▁systems	-2389
▁actually	-2390
string	-2391
ached	-2392
▁Fl	-2393
ties	-2394
ruction	-2395
icult	-2396
▁Ass	-2397
▁create	-2398
ze	-2399
ops	-2400
▁max	-2401
▁benef	-2402
ession	-2403
arent	-2404
rr	-2405
▁demon	-2406
mathrm	-2407
49	-2408
▁special	-2409
Com	-2410
▁half	-2411
▁behav	-2412
idered	-2413
▁dam	-2414
▁viol	-2415
▁ut	-2416
ensity	-2417
▁disease	-2418
▁detect	-2419
ches	-2420
uration	-2421
abor	-2422
We	-2423
▁approach	-2424
}_	-2425
na	-2426
▁clos	-2427
▁food	-2428
span	-2429
2-	-2430
▁Sim	-2431
▁members	-2432
▁Euro	-2433
gamma	-2434
imum	-2435
date	-2436
▁er	-2437
▁eval	-2438
▁device	-2439
")	-2440
▁points	-2441
cular	-2442
▁ste	-2443
▁(*	-2444
oph	-2445
td	-2446
▁obtained	-2447
ero	-2448
irl	-2449
▁concent	-2450
▁likely	-2451
▁considered	-2452
▁||	-2453
bit	-2454
ext	-2455
inary	-2456
▁factor	-2457
posed	-2458
▁Christ	-2459
▁Im	-2460
▁almost	-2461
▁positive	-2462
▁weight	-2463
omet	-2464
OS	-2465
▁focus	-2466
....	-2467
▁moment	-2468
▁spect	-2469
▁string	-2470
▁table	-2471
▁concer	-2472
▁nothing	-2473
▁black	-2474
▁market	-2475
▁private	-2476
www	-2477
▁experience	-2478
▁AN	-2479
off	-2480
▁$$	-2481
▁THE	-2482
6)	-2483
▁makes	-2484
▁Ab	-2485
now	-2486
▁anything	-2487
▁six	-2488
▁Par	-2489
ief	-2490
%)	-2491
▁occur	-2492
▁added	-2493
▁cross	-2494
pping	-2495
▁close	-2496
44	-2497
▁near	-2498
▁application	-2499
load	-2500
▁Here	-2501
String	-2502
▁sus	-2503
OM	-2504
▁affect	-2505
▁$(	-2506
____	-2507
98	-2508
▁custom	-2509
▁dig	-2510
▁difficult	-2511
▁demonstr	-2512
ideo	-2513
▁York	-2514
iding	-2515
class	-2516
+\	-2517
▁property	-2518
▁decre	-2519
http	-2520
ires	-2521
ING	-2522
▁trying	-2523
▁sil	-2524
▁artic	-2525
55	-2526
umber	-2527
CH	-2528
▁cause	-2529
▁rat	-2530
cing	-2531
▁mut	-2532
*(	-2533
onal	-2534
▁heart	-2535
▁ill	-2536
▁Now	-2537
▁Acc	-2538
▁God	-2539
▁\\	-2540
uk	-2541
ike	-2542
▁magn	-2543
itting	-2544
ci	-2545
▁40	-2546
▁future	-2547
▁entire	-2548
aff	-2549
▁looking	-2550
▁related	-2551
▁dat	-2552
lim	-2553
▁city	-2554
▁drug	-2555
▁integr	-2556
rho	-2557
▁deal	-2558
▁consist	-2559
rown	-2560
CC	-2561
▁sex	-2562
▁parent	-2563
▁![	-2564
▁Cent	-2565
▁Ge	-2566
▁Pol	-2567
▁minutes	-2568
anguage	-2569
▁Qu	-2570
------------	-2571
▁history	-2572
▁solution	-2573
▁region	-2574
▁econom	-2575
▁address	-2576
yt	-2577
▁hom	-2578
▁fav	-2579
0)	-2580
▁held	-2581
▁included	-2582
this	-2583
▁defined	-2584
▁nat	-2585
▁young	-2586
▁Med	-2587
▁trad	-2588
comm	-2589
ply	-2590
▁Cont	-2591
▁Mc	-2592
ilt	-2593
ternal	-2594
▁ur	-2595
ama	-2596
▁decl	-2597
fully	-2598
ball	-2599
▁front	-2600
resh	-2601
▁§	-2602
ulated	-2603
▁ang	-2604
1){	-2605
▁network	-2606
big	-2607
],[@	-2608
▁contr	-2609
▁pan	-2610
▁flu	-2611
▁series	-2612
ros	-2613
etition	-2614
see	-2615
▁tax	-2616
▁length	-2617
verse	-2618
▁Man	-2619
▁paper	-2620
Val	-2621
▁publ	-2622
$-	-2623
▁assess	-2624
▁block	-2625
AB	-2626
▁answ	-2627
▁received	-2628
aging	-2629
andom	-2630
▁eyes	-2631
log	-2632
chie	-2633
▁While	-2634
▁respectively	-2635
value	-2636
iet	-2637
▁works	-2638
▁maint	-2639
itten	-2640
orld	-2641
▁loss	-2642
▁Cor	-2643
▁install	-2644
▁Act	-2645
▁relationship	-2646
net	-2647
delta	-2648
lying	-2649
ales	-2650
▁himself	-2651
▁Dr	-2652
▁po	-2653
aged	-2654
▁Des	-2655
▁appl	-2656
ips	-2657
▁simple	-2658
▁season	-2659
wh	-2660
my	-2661
umb	-2662
mitted	-2663
21	-2664
curity	-2665
obal	-2666
▁camp	-2667
ada	-2668
▁believe	-2669
▁static	-2670
▁coll	-2671
Figure	-2672
dro	-2673
▁3*	-2674
ols	-2675
▁performance	-2676
▁link	-2677
izing	-2678
▁=>	-2679
hel	-2680
▁fall	-2681
▁story	-2682
xi	-2683
▁words	-2684
▁thus	-2685
▁accept	-2686
▁walk	-2687
▁idea	-2688
wise	-2689
uly	-2690
▁bound	-2691
▁Europe	-2692
▁fig	-2693
pecially	-2694
▁significantly	-2695
ems	-2696
plement	-2697
*,	-2698
iting	-2699
gree	-2700
▁million	-2701
ences	-2702
ev	-2703
▁decision	-2704
theta	-2705
IM	-2706
pose	-2707
ster	-2708
▁attack	-2709
▁begin	-2710
▁defin	-2711
▁cancer	-2712
ises	-2713
ledge	-2714
▁hours	-2715
html	-2716
tau	-2717
77	-2718
▁getting	-2719
88	-2720
▁-1	-2721
▁immun	-2722
▁Thus	-2723
nu	-2724
iqu	-2725
▁Our	-2726
nt	-2727
selves	-2728
../	-2729
ferences	-2730
▁adj	-2731
You	-2732
▁print	-2733
▁via	-2734
oud	-2735
▁learn	-2736
▁additional	-2737
3-	-2738
▁states	-2739
.)	-2740
EM	-2741
▁needed	-2742
isf	-2743
▁miss	-2744
▁difference	-2745
▁methods	-2746
leq	-2747
▁population	-2748
▁started	-2749
}}\	-2750
▁environment	-2751
▁Some	-2752
OP	-2753
▁Def	-2754
ili	-2755
inding	-2756
▁chall	-2757
partial	-2758
▁μ	-2759
anced	-2760
▁compl	-2761
IL	-2762
▁eff	-2763
▁therefore	-2764
.3	-2765
▁},	-2766
▁pattern	-2767
miss	-2768
▁lines	-2769
}{\	-2770
atively	-2771
▁Gu	-2772
Ph	-2773
▁introdu	-2774
▁contact	-2775
bed	-2776
▁shall	-2777
▁community	-2778
atus	-2779
▁saw	-2780
oms	-2781
▁http	-2782
▁display	-2783
ening	-2784
rs	-2785
omega	-2786
▁inhib	-2787
{1	-2788
▁assum	-2789
position	-2790
▁remov	-2791
ender	-2792
IR	-2793
▁patient	-2794
▁film	-2795
▁Will	-2796
▁indu	-2797
▁influ	-2798
cher	-2799
▁itself	-2800
▁pain	-2801
inn	-2802
body	-2803
▁improve	-2804
▁motion	-2805
▁jo	-2806
▁host	-2807
▁Dep	-2808
istance	-2809
▁search	-2810
▁growth	-2811
overed	-2812
ensive	-2813
rew	-2814
▁appear	-2815
like	-2816
▁achie	-2817
▁party	-2818
▁Sol	-2819
gress	-2820
><	-2821
▁seems	-2822
97	-2823
▁probably	-2824
▁quick	-2825
Cont	-2826
odes	-2827
▁instead	-2828
inks	-2829
yp	-2830
▁attempt	-2831
▁defendant	-2832
▁;	-2833
▁page	-2834
▁today	-2835
▁Since	-2836
atal	-2837
▁subst	-2838
ocr	-2839
▁Per	-2840
-4	-2841
▁someone	-2842
▁white	-2843
▁looked	-2844
▁recogn	-2845
▁foot	-2846
▁Ag	-2847
define	-2848
times	-2849
vant	-2850
▁false	-2851
ilities	-2852
based	-2853
US	-2854
amed	-2855
▁wanted	-2856
▁reve	-2857
▁28	-2858
where	-2859
▁Ob	-2860
▁Jan	-2861
List	-2862
▁Pe	-2863
");	-2864
ocal	-2865
▁exec	-2866
Res	-2867
gest	-2868
View	-2869
gl	-2870
▁dest	-2871
▁live	-2872
▁involved	-2873
▁mother	-2874
▁step	-2875
▁Har	-2876
ynam	-2877
▁problems	-2878
▁bad	-2879
▁fund	-2880
uth	-2881
▁administ	-2882
IP	-2883
infty	-2884
▁models	-2885
▁ground	-2886
▁expected	-2887
▁original	-2888
eks	-2889
▁Pres	-2890
▁load	-2891
▁needs	-2892
file	-2893
▁services	-2894
▁behind	-2895
ha	-2896
unch	-2897
▁production	-2898
▁input	-2899
year	-2900
comes	-2901
code	-2902
ills	-2903
EC	-2904
▁National	-2905
anks	-2906
icense	-2907
sk	-2908
Ar	-2909
▁creat	-2910
66	-2911
▁taking	-2912
58	-2913
ych	-2914
▁distribution	-2915
uments	-2916
ederal	-2917
▁~	-2918
pri	-2919
more	-2920
57	-2921
▁quite	-2922
dis	-2923
ites	-2924
▁color	-2925
ying	-2926
▁Comp	-2927
▁ess	-2928
▁quality	-2929
ae	-2930
▁(\[	-2931
▁Part	-2932
UT	-2933
xim	-2934
▁tum	-2935
▁predict	-2936
▁initial	-2937
▁5.	-2938
▁contract	-2939
▁anti	-2940
▁comes	-2941
aled	-2942
▁exact	-2943
▁die	-2944
▁element	-2945
▁From	-2946
oo	-2947
used	-2948
)(	-2949
come	-2950
▁fire	-2951
iles	-2952
▁OF	-2953
▁pret	-2954
▁Ed	-2955
▁temperature	-2956
ste	-2957
astic	-2958
▁compar	-2959
▁dim	-2960
▁Germ	-2961
iddle	-2962
▁gene	-2963
▁indust	-2964
▁necessary	-2965
▁vo	-2966
▁estim	-2967
comp	-2968
char	-2969
▁proced	-2970
._	-2971
ns	-2972
⁄4	-2973
ging	-2974
ana	-2975
▁sense	-2976
▁Bo	-2977
********	-2978
▁knew	-2979
box	-2980
▁document	-2981
lig	-2982
▁First	-2983
ribute	-2984
light	-2985
▁-3	-2986
}$,	-2987
▁sem	-2988
▁word	-2989
▁especially	-2990
size	-2991
▁recent	-2992
▁?	-2993
></	-2994
▁educ	-2995
do	-2996
book	-2997
▁Just	-2998
IV	-2999
▁Go	-3000
▁output	-3001
▁implement	-3002
urch	-3003
▁Further	-3004
▁3,	-3005
▁les	-3006
SS	-3007
▁inside	-3008
46	-3009
ards	-3010
▁analy	-3011
####	-3012
ese	-3013
▁Although	-3014
▁__	-3015
▁simply	-3016
▁nucle	-3017
▁events	-3018
▁issues	-3019
▁win	-3020
▁experiment	-3021
▁everything	-3022
semb	-3023
ulations	-3024
▁Dis	-3025
▁window	-3026
sl	-3027
▁ST	-3028
}$.	-3029
▁ge	-3030
rote	-3031
▁provides	-3032
▁features	-3033
▁presence	-3034
eration	-3035
▁average	-3036
▁El	-3037
▁clinical	-3038
utions	-3039
▁phase	-3040
▁longer	-3041
Table	-3042
ronic	-3043
ENT	-3044
▁pie	-3045
▁outside	-3046
ades	-3047
▁ir	-3048
')	-3049
▁City	-3050
▁personal	-3051
▁became	-3052
▁4*	-3053
▁determined	-3054
untu	-3055
▁sequence	-3056
▁bring	-3057
▁began	-3058
document	-3059
ado	-3060
▁War	-3061
▁correl	-3062
dom	-3063
▁alle	-3064
Tr	-3065
▁sample	-3066
▁197	-3067
aving	-3068
quad	-3069
▁copy	-3070
▁bir	-3071
itude	-3072
56	-3073
inally	-3074
])	-3075
31	-3076
▁sett	-3077
▁species	-3078
▁correct	-3079
raction	-3080
▁media	-3081
osition	-3082
▁plaintiff	-3083
istics	-3084
oke	-3085
▁config	-3086
^*	-3087
▁door	-3088
▁district	-3089
CL	-3090
▁0;	-3091
▁complete	-3092
▁CD	-3093
▁tiss	-3094
▁former	-3095
reet	-3096
▁wall	-3097
OL	-3098
▁effort	-3099
rapy	-3100
▁select	-3101
▁&&	-3102
vious	-3103
▁girl	-3104
annel	-3105
▁Dist	-3106
▁date	-3107
▁depend	-3108
▁capt	-3109
▁Bar	-3110
▁fem	-3111
▁ox	-3112
▁stra	-3113
Delta	-3114
▁satisf	-3115
▁pressure	-3116
▁son	-3117
des	-3118
▁du	-3119
▁remain	-3120
rav	-3121
▁functions	-3122
▁stay	-3123
▁language	-3124
UR	-3125
rc	-3126
hic	-3127
▁video	-3128
arily	-3129
▁poly	-3130
clusion	-3131
▁communic	-3132
94	-3133
▁mole	-3134
▁diagn	-3135
bf	-3136
ags	-3137
▁running	-3138
▁father	-3139
▁impact	-3140
field	-3141
▁Reg	-3142
▁According	-3143
▁lack	-3144
▁strateg	-3145
▁mi	-3146
=0	-3147
top	-3148
uous	-3149
mat	-3150
const	-3151
▁slow	-3152
▁music	-3153
▁-4	-3154
▁hor	-3155
width	-3156
Data	-3157
▁acid	-3158
MS	-3159
▁force	-3160
dered	-3161
▁Pa	-3162
word	-3163
RNA	-3164
▁turned	-3165
".	-3166
ett	-3167
▁surv	-3168
cription	-3169
refore	-3170
App	-3171
▁memory	-3172
ogle	-3173
aves	-3174
ram	-3175
▁index	-3176
▁easy	-3177
icon	-3178
▁cry	-3179
ospital	-3180
▁deriv	-3181
▁prec	-3182
bor	-3183
▁types	-3184
▁presented	-3185
▁track	-3186
▁wait	-3187
olic	-3188
pre	-3189
▁created	-3190
mary	-3191
▁woman	-3192
▁written	-3193
▁stri	-3194
▁hyp	-3195
▁questions	-3196
elling	-3197
▁students	-3198
▁rights	-3199
apter	-3200
▁pack	-3201
▁\<	-3202
rim	-3203
▁Calcul	-3204
▁followed	-3205
▁weeks	-3206
96	-3207
▁mis	-3208
▁La	-3209
▁princ	-3210
ymb	-3211
▁write	-3212
▁official	-3213
\\	-3214
oon	-3215
ributed	-3216
▁member	-3217
▁products	-3218
▁physical	-3219
▁screen	-3220
olds	-3221
▁Sch	-3222
▁rev	-3223
actions	-3224
▁police	-3225
▁Af	-3226
▁tried	-3227
PE	-3228
▁Dav	-3229
▁Therefore	-3230
itation	-3231
▁sound	-3232
itary	-3233
▁effective	-3234
▁valid	-3235
▁felt	-3236
▁cred	-3237
▁Inc	-3238
fs	-3239
idge	-3240
▁random	-3241
▁(1	-3242
tilde	-3243
.0	-3244
iam	-3245
OC	-3246
▁chem	-3247
▁!=	-3248
▁Her	-3249
▁null	-3250
▁wrong	-3251
▁evalu	-3252
▁Brit	-3253
▁-0.	-3254
▁increasing	-3255
▁directly	-3256
▁genes	-3257
▁constit	-3258
▁Min	-3259
▁samples	-3260
param	-3261
▁bur	-3262
▁properties	-3263
▁elements	-3264
▁pair	-3265
▁Sm	-3266
▁parameters	-3267
▁constant	-3268
PS	-3269
▁South	-3270
▁gave	-3271
!"	-3272
▁mach	-3273
▁forward	-3274
54	-3275
▁0.00	-3276
▁Intern	-3277
▁hope	-3278
▁accom	-3279
state	-3280
tered	-3281
▁22	-3282
▁controll	-3283
▁context	-3284
down	-3285
sim	-3286
▁primary	-3287
▁soon	-3288
▁political	-3289
lier	-3290
▁ten	-3291
▁consum	-3292
haps	-3293
px	-3294
▁heav	-3295
▁60	-3296
arg	-3297
Un	-3298
▁hands	-3299
▁software	-3300
▁determine	-3301
▁policy	-3302
▁hot	-3303
▁World	-3304
▁Trump	-3305
▁follows	-3306
▁knowledge	-3307
▁Russ	-3308
To	-3309
rief	-3310
▁identified	-3311
▁friends	-3312
▁frame	-3313
Col	-3314
|\	-3315
▁prevent	-3316
Ob	-3317
▁immedi	-3318
]{},	-3319
▁status	-3320
▁late	-3321
▁Aust	-3322
ken	-3323
▁invention	-3324
▁North	-3325
▁dark	-3326
▁natural	-3327
▁building	-3328
ishing	-3329
59	-3330
ults	-3331
hood	-3332
▁Gl	-3333
▁27	-3334
list	-3335
su	-3336
▁greater	-3337
▁Aug	-3338
▁array	-3339
▁areas	-3340
▁whose	-3341
ements	-3342
ague	-3343
";	-3344
II	-3345
▁except	-3346
▁bott	-3347
lin	-3348
era	-3349
▁gas	-3350
▁answer	-3351
▁Oct	-3352
{1}{	-3353
▁transfer	-3354
▁stop	-3355
clus	-3356
ils	-3357
▁Char	-3358
▁map	-3359
He	-3360
quest	-3361
▁sle	-3362
\*	-3363
▁deep	-3364
▁release	-3365
dev	-3366
▁Calculate	-3367
▁wasn	-3368
ula	-3369
▁news	-3370
▁isn	-3371
▁applied	-3372
▁sort	-3373
but	-3374
▁developed	-3375
point	-3376
▁autom	-3377
87	-3378
▁limited	-3379
2){	-3380
oe	-3381
iber	-3382
▁ps	-3383
▁friend	-3384
▁ago	-3385
ography	-3386
uary	-3387
▁ful	-3388
▁Id	-3389
▁avoid	-3390
▁title	-3391
▁basis	-3392
▁medical	-3393
▁themselves	-3394
▁although	-3395
▁5*	-3396
ii	-3397
▁prep	-3398
▁leave	-3399
vere	-3400
lementary	-3401
sm	-3402
lish	-3403
▁mention	-3404
▁lost	-3405
▁sn	-3406
▁coming	-3407
)}	-3408
▁refer	-3409
ager	-3410
▁favor	-3411
include	-3412
▁particularly	-3413
▁webs	-3414
asons	-3415
oma	-3416
fection	-3417
kn	-3418
▁(200	-3419
reng	-3420
▁ability	-3421
▁watch	-3422
▁vehic	-3423
▁players	-3424
▁aud	-3425
pper	-3426
▁previously	-3427
▁recomm	-3428
▁judgment	-3429
rupt	-3430
▁anyone	-3431
▁−	-3432
▁training	-3433
ius	-3434
lease	-3435
▁nature	-3436
▁Val	-3437
▁opportun	-3438
▁reduced	-3439
++	-3440
IF	-3441
apan	-3442
och	-3443
▁command	-3444
▁aw	-3445
▁match	-3446
42	-3447
▁round	-3448
▁ren	-3449
▁compan	-3450
▁includes	-3451
▁box	-3452
▁draw	-3453
▁respond	-3454
▁contain	-3455
▁layer	-3456
▁March	-3457
▁reference	-3458
▁repe	-3459
▁pull	-3460
▁DNA	-3461
▁AP	-3462
▁generally	-3463
rangle	-3464
gn	-3465
plate	-3466
hern	-3467
\])	-3468
script	-3469
trans	-3470
uel	-3471
▁grad	-3472
▁heard	-3473
oles	-3474
otic	-3475
fra	-3476
)$.	-3477
iments	-3478
▁usually	-3479
isions	-3480
pite	-3481
▁Int	-3482
43	-3483
anger	-3484
86	-3485
EL	-3486
▁Apr	-3487
▁theory	-3488
▁direction	-3489
▁published	-3490
▁bed	-3491
▁Ser	-3492
▁fast	-3493
▁President	-3494
ashing	-3495
ris	-3496
cdot	-3497
▁images	-3498
roph	-3499
array	-3500
▁21	-3501
▁und	-3502
▁-5	-3503
▁anim	-3504
Ps	-3505
▁:=	-3506
▁Us	-3507
▁living	-3508
fered	-3509
▁speed	-3510
ivil	-3511
▁share	-3512
gor	-3513
▁County	-3514
▁prot	-3515
▁pict	-3516
▁statement	-3517
earch	-3518
rror	-3519
▁[*	-3520
▁cover	-3521
aches	-3522
▁national	-3523
▁4,	-3524
▁June	-3525
MA	-3526
▁claims	-3527
▁broad	-3528
ecause	-3529
▁vac	-3530
ellow	-3531
*~	-3532
▁impl	-3533
orks	-3534
▁mice	-3535
▁26	-3536
▁opin	-3537
85	-3538
}(\	-3539
▁Su	-3540
acement	-3541
▁express	-3542
▁note	-3543
▁assert	-3544
▁behavior	-3545
▁driv	-3546
▁article	-3547
.01	-3548
call	-3549
▁message	-3550
rial	-3551
▁accur	-3552
error	-3553
^{-1	-3554
osph	-3555
▁Sept	-3556
▁online	-3557
▁IS	-3558
▁independent	-3559
-5	-3560
mar	-3561
▁numbers	-3562
cell	-3563
▁active	-3564
erson	-3565
inated	-3566
pen	-3567
▁engine	-3568
ios	-3569
▁Cons	-3570
▁differences	-3571
met	-3572
▁п	-3573
Value	-3574
▁etc	-3575
OD	-3576
ran	-3577
urg	-3578
CD	-3579
▁altern	-3580
▁style	-3581
▁band	-3582
hest	-3583
▁cand	-3584
rite	-3585
1/	-3586
▁corresponding	-3587
▁continue	-3588
▁unit	-3589
▁alone	-3590
▁led	-3591
▁23	-3592
TR	-3593
osure	-3594
▁America	-3595
-10	-3596
5%	-3597
▁office	-3598
▁stage	-3599
($	-3600
▁fight	-3601
▁dro	-3602
AA	-3603
joy	-3604
lay	-3605
▁column	-3606
iven	-3607
▁default	-3608
▁Of	-3609
isms	-3610
▁Cir	-3611
▁compet	-3612
igen	-3613
zz	-3614
▁tou	-3615
lation	-3616
▁appropri	-3617
▁dynam	-3618
▁practice	-3619
▁vict	-3620
▁rot	-3621
▁regular	-3622
▁OR	-3623
▁squ	-3624
▁names	-3625
▁ens	-3626
▁Phys	-3627
ica	-3628
mega	-3629
^[@	-3630
}}$	-3631
cm	-3632
▁Sun	-3633
2~	-3634
men	-3635
89	-3636
▁----	-3637
ille	-3638
▁town	-3639
▁takes	-3640
vey	-3641
▁games	-3642
▁offer	-3643
atives	-3644
oul	-3645
▁Ap	-3646
▁approxim	-3647
▁Dem	-3648
illing	-3649
▁construct	-3650
▁href	-3651
term	-3652
▁feed	-3653
▁System	-3654
deed	-3655
aries	-3656
▁Mon	-3657
unk	-3658
Sh	-3659
▁reach	-3660
▁security	-3661
4-	-3662
8)	-3663
▁density	-3664
cho	-3665
▁brain	-3666
ental	-3667
▁los	-3668
length	-3669
lor	-3670
▁obtain	-3671
atform	-3672
No	-3673
▁Sw	-3674
BC	-3675
▁brought	-3676
▁road	-3677
bon	-3678
▁dead	-3679
▁Sub	-3680
▁tele	-3681
▁perfect	-3682
▁negative	-3683
▁House	-3684
FF	-3685
▁Det	-3686
▁double	-3687
▁Japan	-3688
▁antib	-3689
attle	-3690
▁financ	-3691
▁writing	-3692
▁background	-3693
▁grant	-3694
lege	-3695
ming	-3696
▁July	-3697
▁arr	-3698
▁streng	-3699
yond	-3700
urb	-3701
uge	-3702
▁enh	-3703
TH	-3704
▁Jud	-3705
▁ord	-3706
cast	-3707
la	-3708
PL	-3709
▁/**	-3710
ufact	-3711
▁proposed	-3712
ibrary	-3713
▁devices	-3714
▁larger	-3715
ournal	-3716
▁ult	-3717
▁measured	-3718
]^	-3719
▁protect	-3720
SD	-3721
53	-3722
▁ms	-3723
▁hydro	-3724
undred	-3725
bre	-3726
Se	-3727
▁relative	-3728
▁General	-3729
▁April	-3730
ny	-3731
▁tradition	-3732
▁pretty	-3733
▁ball	-3734
▁president	-3735
gorith	-3736
itter	-3737
▁Trans	-3738
ociety	-3739
ham	-3740
orph	-3741
▁clean	-3742
https	-3743
▁mount	-3744
▁recently	-3745
▁speak	-3746
ously	-3747
▁purpose	-3748
En	-3749
augh	-3750
▁global	-3751
path	-3752
vention	-3753
▁Other	-3754
anch	-3755
arning	-3756
ethyl	-3757
▁attention	-3758
▁center	-3759
▁purch	-3760
▁liter	-3761
Im	-3762
▁har	-3763
▁January	-3764
▁ways	-3765
▁West	-3766
▁5,	-3767
▁allowed	-3768
▁Stud	-3769
with	-3770
eline	-3771
▁stress	-3772
ports	-3773
▁Serv	-3774
SP	-3775
▁saying	-3776
▁Je	-3777
aign	-3778
inate	-3779
▁poor	-3780
ubuntu	-3781
psi	-3782
▁Even	-3783
▁distance	-3784
ancy	-3785
▁highly	-3786
estern	-3787
rench	-3788
▁6.	-3789
UN	-3790
▁treated	-3791
▁Because	-3792
▁China	-3793
uild	-3794
7)	-3795
▁rule	-3796
▁cam	-3797
▁Also	-3798
▁rates	-3799
▁oil	-3800
▁August	-3801
ble	-3802
▁appeal	-3803
▁hon	-3804
▁Mod	-3805
00,	-3806
▁graph	-3807
▁acqu	-3808
▁situation	-3809
▁Mich	-3810
▁sufficient	-3811
▁Red	-3812
▁row	-3813
▁il	-3814
▁designed	-3815
▁isol	-3816
▁visit	-3817
version	-3818
}^	-3819
▁resid	-3820
ocks	-3821
▁argument	-3822
▁Che	-3823
▁fixed	-3824
▁inform	-3825
▁serious	-3826
▁arch	-3827
ellant	-3828
▁users	-3829
▁é	-3830
enty	-3831
pat	-3832
gu	-3833
▁failed	-3834
79	-3835
▁proceed	-3836
▁produced	-3837
irect	-3838
ML	-3839
max	-3840
▁English	-3841
oted	-3842
Omega	-3843
▁fine	-3844
▁profess	-3845
▁star	-3846
▁wrote	-3847
▁auth	-3848
▁Em	-3849
▁instance	-3850
▁ter	-3851
▁suit	-3852
ón	-3853
▁files	-3854
▁selected	-3855
▁29	-3856
▁charge	-3857
ão	-3858
▁uns	-3859
omy	-3860
_.	-3861
▁ri	-3862
▁useful	-3863
▁Pre	-3864
▁divided	-3865
reme	-3866
▁frequency	-3867
▁capac	-3868
▁degree	-3869
pret	-3870
▁###	-3871
▁mer	-3872
raz	-3873
▁heat	-3874
▁gives	-3875
rightarrow	-3876
Gr	-3877
▁everyone	-3878
map	-3879
▁parts	-3880
▁established	-3881
gy	-3882
▁components	-3883
change	-3884
▁operation	-3885
GF	-3886
ulate	-3887
pid	-3888
▁substant	-3889
aily	-3890
fn	-3891
iled	-3892
.00	-3893
erve	-3894
omen	-3895
)$,	-3896
▁web	-3897
non	-3898
▁stim	-3899
▁Feb	-3900
itness	-3901
izes	-3902
76	-3903
lo	-3904
▁sold	-3905
▁à	-3906
▁details	-3907
obile	-3908
▁phen	-3909
\].	-3910
▁bal	-3911
abase	-3912
▁van	-3913
epsilon	-3914
▁location	-3915
▁leading	-3916
cember	-3917
ube	-3918
~2~	-3919
▁((	-3920
▁September	-3921
▁scale	-3922
▁mag	-3923
▁identify	-3924
▁prop	-3925
print	-3926
And	-3927
▁birth	-3928
As	-3929
band	-3930
▁lat	-3931
acing	-3932
▁findings	-3933
SC	-3934
▁caused	-3935
▁worked	-3936
▁mid	-3937
iring	-3938
▁agreement	-3939
alt	-3940
ership	-3941
coming	-3942
▁management	-3943
▁technology	-3944
▁intern	-3945
▁travel	-3946
▁earlier	-3947
psilon	-3948
,'	-3949
ondon	-3950
▁fair	-3951
Gamma	-3952
▁District	-3953
▁derivative	-3954
▁somet	-3955
▁King	-3956
▁built	-3957
▁morning	-3958
▁bank	-3959
▁announ	-3960
▁7.	-3961
oring	-3962
▁October	-3963
But	-3964
▁experien	-3965
▁central	-3966
entially	-3967
▁[**	-3968
▁hundred	-3969
▁enjoy	-3970
▁ratio	-3971
operator	-3972
▁beaut	-3973
js	-3974
▁pen	-3975
orage	-3976
));	-3977
ees	-3978
▁surpr	-3979
▁voice	-3980
▁computer	-3981
ovember	-3982
▁legal	-3983
▁countries	-3984
▁fa	-3985
▁matrix	-3986
▁notice	-3987
▁CH	-3988
▁reading	-3989
▁easily	-3990
▁(0.	-3991
ico	-3992
▁completely	-3993
▁hear	-3994
Object	-3995
▁imm	-3996
vare	-3997
▁comment	-3998
▁clust	-3999
▁Inst	-4000
mpt	-4001
▁website	-4002
wide	-4003
▁individuals	-4004
orem	-4005
▁eight	-4006
▁manufact	-4007
▁secret	-4008
▁Hol	-4009
▁component	-4010
known	-4011
▁String	-4012
▁sites	-4013
▁proteins	-4014
▁threat	-4015
▁prime	-4016
▁с	-4017
5-	-4018
▁saf	-4019
Text	-4020
▁Department	-4021
inct	-4022
▁currently	-4023
▁wonder	-4024
▁};	-4025
▁price	-4026
wards	-4027
*.	-4028
▁moved	-4029
▁circum	-4030
▁neigh	-4031
▁mode	-4032
/>	-4033
iency	-4034
ocation	-4035
▁da	-4036
supp	-4037
oding	-4038
▁hyper	-4039
▁requires	-4040
plit	-4041
ida	-4042
▁choice	-4043
lock	-4044
ui	-4045
EX	-4046
ffer	-4047
ocol	-4048
▁descript	-4049
▁Afric	-4050
▁myself	-4051
▁formed	-4052
[0	-4053
bi	-4054
▁las	-4055
41	-4056
▁federal	-4057
▁aim	-4058
▁arm	-4059
▁released	-4060
▁changed	-4061
▁contains	-4062
3){	-4063
ibly	-4064
▁companies	-4065
▁December	-4066
▁emerg	-4067
▁seemed	-4068
▁equal	-4069
rate	-4070
fort	-4071
▁tim	-4072
▁failure	-4073
▁swe	-4074
▁List	-4075
king	-4076
▁Two	-4077
▁board	-4078
▁Data	-4079
za	-4080
▁located	-4081
▁multi	-4082
▁plant	-4083
▁beyond	-4084
What	-4085
▁culture	-4086
63	-4087
aling	-4088
▁Solve	-4089
▁unique	-4090
group	-4091
▁supported	-4092
▁towards	-4093
▁drive	-4094
ifically	-4095
▁ax	-4096
arr	-4097
▁song	-4098
ULL	-4099
Is	-4100
▁November	-4101
▁discl	-4102
▁option	-4103
zed	-4104
▁recept	-4105
▁AD	-4106
▁ones	-4107
uted	-4108
▁hit	-4109
elle	-4110
pan	-4111
▁psych	-4112
**(	-4113
▁authors	-4114
^+	-4115
▁decided	-4116
Get	-4117
▁uint	-4118
vis	-4119
▁industry	-4120
MP	-4121
Al	-4122
▁containing	-4123
▁extra	-4124
▁thous	-4125
cin	-4126
▁lov	-4127
BS	-4128
▁allows	-4129
CA	-4130
▁1/	-4131
▁80	-4132
▁Mark	-4133
▁server	-4134
function	-4135
▁Get	-4136
spec	-4137
▁carry	-4138
▁sche	-4139
▁(\	-4140
▁worth	-4141
▁tissue	-4142
cil	-4143
▁finding	-4144
struct	-4145
▁roll	-4146
52	-4147
ford	-4148
ights	-4149
▁Sen	-4150
▁prefer	-4151
▁expressed	-4152
aste	-4153
▁numer	-4154
▁qual	-4155
▁contrast	-4156
0.00	-4157
ded	-4158
▁email	-4159
▁inn	-4160
▁concern	-4161
9)	-4162
▁connection	-4163
ares	-4164
84	-4165
▁Which	-4166
6-	-4167
▁generated	-4168
▁imag	-4169
то	-4170
▁slight	-4171
▁clearly	-4172
▁advant	-4173
osite	-4174
dim	-4175
active	-4176
▁smaller	-4177
▁novel	-4178
▁exerc	-4179
▁Don	-4180
▁highest	-4181
▁played	-4182
\'	-4183
irmed	-4184
▁campaign	-4185
▁appropriate	-4186
▁cool	-4187
▁meaning	-4188
▁Note	-4189
CE	-4190
▁AT	-4191
▁nor	-4192
cap	-4193
▁quickly	-4194
▁Tw	-4195
▁adjust	-4196
user	-4197
▁dog	-4198
▁remains	-4199
▁concept	-4200
▁hab	-4201
ara	-4202
varepsilon	-4203
▁options	-4204
▁cook	-4205
▁upp	-4206
▁looks	-4207
▁High	-4208
▁в	-4209
TER	-4210
▁Your	-4211
▁por	-4212
▁connect	-4213
Mod	-4214
▁sometimes	-4215
▁parties	-4216
odies	-4217
▁closed	-4218
93	-4219
▁overall	-4220
encies	-4221
ka	-4222
vision	-4223
▁actual	-4224
▁critical	-4225
▁buy	-4226
================	-4227
▁virt	-4228
▁candid	-4229
▁volume	-4230
perty	-4231
▁commit	-4232
bin	-4233
▁node	-4234
▁trust	-4235
▁Most	-4236
ato	-4237
exp	-4238
urt	-4239
▁algorith	-4240
▁relig	-4241
▁License	-4242
pace	-4243
▁apply	-4244
rier	-4245
▁Bro	-4246
▁Cong	-4247
▁reasons	-4248
▁interview	-4249
2\	-4250
▁AND	-4251
cos	-4252
▁phone	-4253
▁appears	-4254
bum	-4255
▁Austral	-4256
▁Ð	-4257
File	-4258
▁gun	-4259
▁uses	-4260
▁emb	-4261
▁stru	-4262
▁Any	-4263
▁relevant	-4264
aught	-4265
Ed	-4266
_3	-4267
▁н	-4268
▁store	-4269
▁arriv	-4270
▁showing	-4271
▁medium	-4272
▁Figure	-4273
)/	-4274
othes	-4275
▁define	-4276
ener	-4277
▁definition	-4278
▁effic	-4279
▁Republic	-4280
▁vs	-4281
chi	-4282
room	-4283
62	-4284
Sec	-4285
aur	-4286
▁filed	-4287
link	-4288
▁Calif	-4289
▁School	-4290
operatorname	-4291
tee	-4292
▁exactly	-4293
:0	-4294
▁popular	-4295
▁electro	-4296
FL	-4297
PR	-4298
▁feature	-4299
▁sec	-4300
▁Aut	-4301
urance	-4302
▁Moreover	-4303
▁https	-4304
init	-4305
▁wide	-4306
▁///	-4307
▁mg	-4308
▁figure	-4309
otes	-4310
▁variable	-4311
▁Mus	-4312
lick	-4313
▁fat	-4314
▁Health	-4315
▁couldn	-4316
▁concentration	-4317
▁wife	-4318
▁transport	-4319
▁formation	-4320
varphi	-4321
iers	-4322
▁London	-4323
▁weak	-4324
▁couple	-4325
▁learning	-4326
▁materials	-4327
irt	-4328
iques	-4329
*]{}	-4330
▁subsequ	-4331
▁mal	-4332
ashington	-4333
mark	-4334
rum	-4335
py	-4336
asm	-4337
▁pul	-4338
▁experiments	-4339
⁄2	-4340
▁parameter	-4341
▁feet	-4342
▁Mor	-4343
\,	-4344
▁hol	-4345
index	-4346
▁opinion	-4347
▁remember	-4348
▁width	-4349
▁stated	-4350
▁mur	-4351
▁10.	-4352
▁goes	-4353
▁hospital	-4354
section	-4355
▁throw	-4356
▁produce	-4357
▁Ac	-4358
▁activities	-4359
+1	-4360
▁understanding	-4361
92	-4362
anged	-4363
▁spir	-4364
▁restrict	-4365
UL	-4366
▁fully	-4367
▁($	-4368
▁education	-4369
▁military	-4370
Par	-4371
▁setting	-4372
▁challeng	-4373
}_{\	-4374
▁Ang	-4375
▁immediately	-4376
airs	-4377
board	-4378
▁connected	-4379
ruary	-4380
ample	-4381
ouble	-4382
▁financial	-4383
▁Rev	-4384
acher	-4385
rie	-4386
▁strength	-4387
▁parents	-4388
icip	-4389
▁internal	-4390
▁British	-4391
▁regions	-4392
istry	-4393
orge	-4394
▁station	-4395
▁reduce	-4396
ersion	-4397
▁blue	-4398
PP	-4399
▁tumor	-4400
▁costs	-4401
▁interesting	-4402
style	-4403
▁finally	-4404
ky	-4405
^{(	-4406
▁height	-4407
▁receive	-4408
▁hair	-4409
▁obvious	-4410
▁mm	-4411
alle	-4412
▁progress	-4413
cluded	-4414
iday	-4415
Le	-4416
83	-4417
▁links	-4418
rad	-4419
▁je	-4420
▁green	-4421
vec	-4422
▁sun	-4423
74	-4424
▁staff	-4425
▁resulting	-4426
▁proof	-4427
round	-4428
SA	-4429
▁package	-4430
▁applications	-4431
bb	-4432
▁throughout	-4433
▁90	-4434
▁sleep	-4435
▁interpret	-4436
▁exhib	-4437
▁please	-4438
rael	-4439
overn	-4440
▁goal	-4441
▁transition	-4442
▁nearly	-4443
iful	-4444
ornia	-4445
▁placed	-4446
(1	-4447
▁mit	-4448
orney	-4449
▁David	-4450
▁yes	-4451
▁task	-4452
▁fear	-4453
fo	-4454
ael	-4455
▁damage	-4456
ding	-4457
hand	-4458
▁sto	-4459
▁counter	-4460
▁collection	-4461
72	-4462
▁continued	-4463
▁^	-4464
▁hearing	-4465
overy	-4466
▁passed	-4467
cules	-4468
enge	-4469
}=	-4470
▁letters	-4471
▁demand	-4472
▁separate	-4473
▁/>	-4474
_1,	-4475
▁switch	-4476
▁reflect	-4477
▁Why	-4478
▁processes	-4479
▁brief	-4480
▁carried	-4481
▁binding	-4482
pling	-4483
▁San	-4484
▁middle	-4485
▁returned	-4486
▁1)	-4487
OW	-4488
▁variables	-4489
RI	-4490
▁influence	-4491
▁aspect	-4492
▁Park	-4493
▁player	-4494
▁Up	-4495
▁Over	-4496
base	-4497
▁onto	-4498
overline	-4499
rec	-4500
▁org	-4501
▁absol	-4502
force	-4503
This	-4504
▁skin	-4505
ano	-4506
▁movement	-4507
langle	-4508
ais	-4509
▁yield	-4510
▁indicated	-4511
▁collect	-4512
▁consequ	-4513
▁maximum	-4514
▁linear	-4515
rick	-4516
▁thinking	-4517
adem	-4518
▁extract	-4519
////	-4520
▁ign	-4521
▁References	-4522
▁noted	-4523
▁reached	-4524
▁jury	-4525
▁reaction	-4526
▁liqu	-4527
arest	-4528
▁channel	-4529
▁letter	-4530
▁becomes	-4531
works	-4532
▁enter	-4533
▁solid	-4534
▁items	-4535
▁rob	-4536
▁rules	-4537
item	-4538
rant	-4539
iling	-4540
▁During	-4541
itro	-4542
.[	-4543
▁vector	-4544
▁score	-4545
▁Washington	-4546
▁medic	-4547
▁Table	-4548
▁);	-4549
▁fix	-4550
▁si	-4551
▁February	-4552
cale	-4553
lib	-4554
▁mess	-4555
)=	-4556
Set	-4557
}.	-4558
▁util	-4559
▁android	-4560
▁tool	-4561
▁fields	-4562
▁happened	-4563
ATE	-4564
▁ready	-4565
-8	-4566
▁70	-4567
▁California	-4568
51	-4569
73	-4570
▁func	-4571
▁meeting	-4572
ptr	-4573
▁cit	-4574
▁(201	-4575
▁perhaps	-4576
▁Section	-4577
▁named	-4578
related	-4579
▁vehicle	-4580
pective	-4581
▁revealed	-4582
oses	-4583
▁counsel	-4584
▁relatively	-4585
▁fit	-4586
omas	-4587
ooth	-4588
pa	-4589
▁moving	-4590
▁Paul	-4591
▁injury	-4592
▁edge	-4593
▁forms	-4594
▁regarding	-4595
▁Post	-4596
▁######	-4597
▁otherwise	-4598
▁AM	-4599
oz	-4600
}}(	-4601
▁transform	-4602
▁thick	-4603
abled	-4604
▁scient	-4605
▁cat	-4606
▁exists	-4607
count	-4608
▁participants	-4609
▁sympt	-4610
▁starting	-4611
chen	-4612
▁tour	-4613
cles	-4614
▁kept	-4615
▁contribut	-4616
▁(3	-4617
▁Inter	-4618
▁chance	-4619
grad	-4620
▁basic	-4621
['	-4622
▁therapy	-4623
▁majority	-4624
▁sources	-4625
▁French	-4626
▁True	-4627
ymbol	-4628
▁•	-4629
PA	-4630
().	-4631
▁mort	-4632
Error	-4633
▁Rel	-4634
▁playing	-4635
▁domain	-4636
▁lib	-4637
▁wild	-4638
**4	-4639
unc	-4640
▁hous	-4641
"},	-4642
▁\,	-4643
▁giving	-4644
RT	-4645
well	-4646
▁Jack	-4647
oat	-4648
▁circuit	-4649
▁Public	-4650
iform	-4651
atin	-4652
▁bottom	-4653
▁steps	-4654
erate	-4655
▁lives	-4656
▁root	-4657
▁32	-4658
▁interaction	-4659
▁instit	-4660
▁picked	-4661
▁gone	-4662
▁convention	-4663
▁jur	-4664
▁incor	-4665
1*	-4666
gar	-4667
erved	-4668
atur	-4669
▁zero	-4670
▁->	-4671
▁combination	-4672
▁portion	-4673
Key	-4674
asp	-4675
▁gets	-4676
icit	-4677
asis	-4678
▁intr	-4679
▁modern	-4680
asion	-4681
▁White	-4682
▁Every	-4683
omb	-4684
▁send	-4685
▁------------	-4686
▁Spec	-4687
▁Furthermore	-4688
▁places	-4689
atever	-4690
▁plus	-4691
▁grand	-4692
▁reports	-4693
othe	-4694
▁Mat	-4695
▁USA	-4696
RA	-4697
tes	-4698
▁Exp	-4699
:00	-4700
stream	-4701
utive	-4702
▁machine	-4703
grams	-4704
▁msg	-4705
amin	-4706
▁economic	-4707
▁Finally	-4708
▁straight	-4709
▁8.	-4710
▁(**	-4711
▁manner	-4712
hold	-4713
An	-4714
▁resistance	-4715
▁units	-4716
xy	-4717
frak	-4718
▁concentr	-4719
▁pow	-4720
ella	-4721
▁establish	-4722
▁label	-4723
ech	-4724
omic	-4725
enses	-4726
Qu	-4727
ady	-4728
free	-4729
CS	-4730
▁animals	-4731
▁opportunity	-4732
berg	-4733
▁core	-4734
▁35	-4735
iance	-4736
atically	-4737
NS	-4738
iated	-4739
▁suggested	-4740
pol	-4741
▁spin	-4742
▁Each	-4743
▁safe	-4744
roy	-4745
dr	-4746
');	-4747
82	-4748
▁(2)	-4749
▁hour	-4750
▁Hist	-4751
▁Net	-4752
▁stuff	-4753
▁James	-4754
▁calculated	-4755
▁eye	-4756
▁beginning	-4757
▁processing	-4758
▁assemb	-4759
▁Rober	-4760
bra	-4761
▁equation	-4762
fil	-4763
▁removed	-4764
oman	-4765
▁died	-4766
▁petition	-4767
▁European	-4768
▁platform	-4769
-6	-4770
▁tests	-4771
▁civil	-4772
▁infection	-4773
▁NOT	-4774
▁synthe	-4775
iant	-4776
▁upper	-4777
nes	-4778
▁reduction	-4779
▁analys	-4780
▁metal	-4781
▁procedure	-4782
▁Another	-4783
▁wave	-4784
▁histor	-4785
▁Israel	-4786
▁reasonable	-4787
aker	-4788
▁phosph	-4789
geq	-4790
▁Black	-4791
color	-4792
De	-4793
Ct	-4794
▁construction	-4795
▁functional	-4796
▁male	-4797
ocket	-4798
________	-4799
▁achieve	-4800
ename	-4801
▁testing	-4802
onic	-4803
▁coord	-4804
▁metab	-4805
▁apparent	-4806
▁paid	-4807
sis	-4808
04	-4809
df	-4810
under	-4811
▁whom	-4812
inger	-4813
▁brother	-4814
▁mechanism	-4815
▁bul	-4816
itors	-4817
aly	-4818
▁Fe	-4819
▁susp	-4820
▁Tex	-4821
oken	-4822
▁lab	-4823
▁IL	-4824
je	-4825
unn	-4826
▁objects	-4827
▁consistent	-4828
▁seven	-4829
▁Pal	-4830
▁conducted	-4831
▁̧	-4832
▁eth	-4833
▁Arm	-4834
▁tree	-4835
agon	-4836
▁peak	-4837
▁Att	-4838
▁37	-4839
otion	-4840
▁Center	-4841
▁demonstrated	-4842
▁circumst	-4843
▁nil	-4844
▁equival	-4845
omin	-4846
car	-4847
▁yourself	-4848
Class	-4849
▁Ev	-4850
▁complic	-4851
▁CO	-4852
▁<<	-4853
▁detected	-4854
gery	-4855
▁statist	-4856
▁hop	-4857
material	-4858
▁books	-4859
▁safety	-4860
▁maybe	-4861
▁international	-4862
}^{\	-4863
dot	-4864
Time	-4865
HT	-4866
▁cast	-4867
▁neut	-4868
▁mac	-4869
▁variety	-4870
▁remove	-4871
On	-4872
▁resources	-4873
▁Under	-4874
▁agree	-4875
▁wa	-4876
▁Rich	-4877
stitute	-4878
For	-4879
▁PM	-4880
len	-4881
▁shot	-4882
otype	-4883
▁choose	-4884
▁providing	-4885
PC	-4886
▁vill	-4887
▁tend	-4888
▁indicate	-4889
font	-4890
▁item	-4891
▁magnetic	-4892
▁CON	-4893
▁actions	-4894
▁cert	-4895
^3	-4896
iny	-4897
ls	-4898
▁Democr	-4899
▁nearest	-4900
▁capital	-4901
▁rapid	-4902
▁Art	-4903
▁wid	-4904
rend	-4905
▁Well	-4906
eria	-4907
▁Many	-4908
▁});	-4909
▁client	-4910
▁sets	-4911
▁Google	-4912
ria	-4913
▁adapt	-4914
▁spread	-4915
▁glass	-4916
:**	-4917
ipp	-4918
FT	-4919
▁spent	-4920
▁-2*	-4921
▁quar	-4922
PD	-4923
▁touch	-4924
▁administration	-4925
long	-4926
▁harm	-4927
▁Commission	-4928
▁visual	-4929
▁Indian	-4930
▁career	-4931
▁labor	-4932
▁Law	-4933
rome	-4934
▁unc	-4935
▁structures	-4936
onent	-4937
':	-4938
▁adopt	-4939
▁shift	-4940
▁blog	-4941
▁happen	-4942
▁shape	-4943
▁membr	-4944
0,000	-4945
aching	-4946
IA	-4947
▁00	-4948
3⁄4	-4949
\],	-4950
▁comparison	-4951
New	-4952
▁floor	-4953
▁India	-4954
*-	-4955
zym	-4956
ión	-4957
▁--------	-4958
▁benefits	-4959
▁extrem	-4960
ingly	-4961
▁characteristics	-4962
▁compr	-4963
place	-4964
▁arrest	-4965
.19	-4966
▁Defend	-4967
▁prove	-4968
uses	-4969
ingu	-4970
ра	-4971
▁none	-4972
▁Yes	-4973
▁ID	-4974
abil	-4975
▁cyt	-4976
jo	-4977
▁replacement	-4978
Test	-4979
inst	-4980
▁wouldn	-4981
ctors	-4982
▁truth	-4983
▁existing	-4984
▁unf	-4985
▁mill	-4986
OST	-4987
▁0.01	-4988
level	-4989
▁("	-4990
rely	-4991
If	-4992
▁album	-4993
▁Out	-4994
ен	-4995
▁Dan	-4996
/3	-4997
ellig	-4998
7-	-4999
▁daily	-5000
és	-5001
▁happy	-5002
Be	-5003
▁sen	-5004
ensions	-5005
Man	-5006
▁Research	-5007
By	-5008
▁fresh	-5009
▁scen	-5010
▁panel	-5011
▁studied	-5012
EG	-5013
▁plate	-5014
mathfrak	-5015
▁pun	-5016
▁piece	-5017
jection	-5018
▁appeared	-5019
▁capacity	-5020
▁0)	-5021
▁dut	-5022
='	-5023
ustr	-5024
▁Mac	-5025
▁doc	-5026
▁Plaintiff	-5027
▁tal	-5028
▁resol	-5029
▁crim	-5030
▁ok	-5031
▁diss	-5032
ilies	-5033
▁ensure	-5034
02	-5035
itz	-5036
▁century	-5037
▁database	-5038
raint	-5039
▁talking	-5040
▁substr	-5041
▁cop	-5042
▁mentioned	-5043
▁Rem	-5044
▁Ham	-5045
▁Associ	-5046
▁laws	-5047
▁norm	-5048
▁gold	-5049
▁Oh	-5050
▁facts	-5051
▁click	-5052
▁36	-5053
poses	-5054
▁typically	-5055
▁Both	-5056
▁save	-5057
pir	-5058
▁boy	-5059
▁prem	-5060
▁therm	-5061
oting	-5062
▁raised	-5063
▁increases	-5064
▁Govern	-5065
▁upd	-5066
ensional	-5067
▁continuous	-5068
▁Off	-5069
91	-5070
▁International	-5071
All	-5072
]\],	-5073
▁ampl	-5074
▁regul	-5075
▁female	-5076
▁48	-5077
aughter	-5078
indows	-5079
Item	-5080
▁PC	-5081
DA	-5082
▁cru	-5083
ifier	-5084
▁solutions	-5085
▁selection	-5086
▁lif	-5087
▁Sy	-5088
▁]	-5089
cons	-5090
▁cm	-5091
4){	-5092
Exception	-5093
flow	-5094
▁Ke	-5095
wood	-5096
▁---	-5097
oute	-5098
▁opened	-5099
apping	-5100
▁Second	-5101
▁Mart	-5102
Big	-5103
anned	-5104
▁wood	-5105
▁update	-5106
pected	-5107
▁False	-5108
ails	-5109
otal	-5110
ifying	-5111
▁cold	-5112
▁prepared	-5113
rices	-5114
▁trade	-5115
rd	-5116
*)	-5117
^{2	-5118
▁conflic	-5119
▁stream	-5120
▁discussed	-5121
inese	-5122
▁insert	-5123
▁cup	-5124
▁(5	-5125
cel	-5126
_{0	-5127
gre	-5128
▁shoot	-5129
▁witness	-5130
▁approximately	-5131
▁assume	-5132
▁dismiss	-5133
▁wind	-5134
host	-5135
rical	-5136
info	-5137
▁burn	-5138
ota	-5139
▁SE	-5140
ago	-5141
▁severe	-5142
▁mist	-5143
▁race	-5144
▁danger	-5145
05	-5146
▁exposure	-5147
9-	-5148
▁club	-5149
UM	-5150
ayer	-5151
idden	-5152
▁33	-5153
opl	-5154
▁UK	-5155
▁Sup	-5156
uced	-5157
arth	-5158
▁victim	-5159
';	-5160
config	-5161
osen	-5162
igation	-5163
▁Using	-5164
iced	-5165
▁bacter	-5166
ESS	-5167
▁improved	-5168
han	-5169
uman	-5170
▁explained	-5171
▁recommend	-5172
▁Addition	-5173
▁×	-5174
CP	-5175
FA	-5176
8-	-5177
▁radio	-5178
Ad	-5179
▁meant	-5180
Def	-5181
▁liquid	-5182
aud	-5183
▁communication	-5184
▁para	-5185
▁operator	-5186
▁optim	-5187
▁successful	-5188
encing	-5189
▁Sam	-5190
▁SD	-5191
▁responsible	-5192
▁alleged	-5193
▁NULL	-5194
▁detection	-5195
▁bond	-5196
ruit	-5197
▁wat	-5198
vest	-5199
▁picture	-5200
EST	-5201
▁rout	-5202
▁prepar	-5203
lam	-5204
▁doubt	-5205
▁Stat	-5206
▁Miss	-5207
▁Are	-5208
▁interface	-5209
Path	-5210
▁6,	-5211
abs	-5212
acters	-5213
▁Add	-5214
▁Test	-5215
▁heavy	-5216
▁ded	-5217
wid	-5218
▁lip	-5219
ette	-5220
▁(1)	-5221
appa	-5222
▁commerc	-5223
▁2016	-5224
"/>	-5225
ensure	-5226
▁mig	-5227
▁transl	-5228
▁Such	-5229
Pl	-5230
▁Once	-5231
3}	-5232
oto	-5233
▁Jew	-5234
61	-5235
▁Group	-5236
▁introduced	-5237
tre	-5238
?'	-5239
stitution	-5240
ographic	-5241
▁served	-5242
▁older	-5243
ytes	-5244
▁Like	-5245
▁techniques	-5246
▁nice	-5247
▁TV	-5248
▁border	-5249
▁kill	-5250
▁beautiful	-5251
▁description	-5252
va	-5253
▁RNA	-5254
php	-5255
▁cas	-5256
gs	-5257
▁measures	-5258
itect	-5259
input	-5260
▁Press	-5261
▁explain	-5262
▁expand	-5263
▁award	-5264
▁benefit	-5265
soft	-5266
▁hus	-5267
▁occup	-5268
istant	-5269
po	-5270
▁lock	-5271
java	-5272
▁sell	-5273
▁German	-5274
kt	-5275
▁tools	-5276
db	-5277
ipe	-5278
▁killed	-5279
▁Circ	-5280
Fr	-5281
Add	-5282
▁storage	-5283
icks	-5284
▁programs	-5285
ini	-5286
▁electric	-5287
▁nation	-5288
▁defense	-5289
zen	-5290
▁45	-5291
space	-5292
orter	-5293
▁vent	-5294
}}}	-5295
▁convers	-5296
ario	-5297
Supp	-5298
▁τ	-5299
▁certainly	-5300
▁Fol	-5301
▁fib	-5302
ascular	-5303
VER	-5304
osing	-5305
▁essential	-5306
rient	-5307
imony	-5308
▁feeling	-5309
▁comments	-5310
▁rock	-5311
▁laug	-5312
▁subjects	-5313
inner	-5314
▁delay	-5315
IB	-5316
▁2012	-5317
▁vert	-5318
▁kin	-5319
(),	-5320
▁unless	-5321
ldots	-5322
▁push	-5323
▁Congress	-5324
▁leads	-5325
▁whereas	-5326
ban	-5327
▁motor	-5328
%,	-5329
▁neur	-5330
▁sexual	-5331
▁activation	-5332
ride	-5333
ALL	-5334
▁prison	-5335
▁professional	-5336
▁Mal	-5337
▁ast	-5338
▁na	-5339
▁experimental	-5340
enced	-5341
▁optical	-5342
:19	-5343
▁challenge	-5344
▁monitor	-5345
▁surround	-5346
▁guess	-5347
vo	-5348
icial	-5349
hal	-5350
▁specifically	-5351
ulf	-5352
asma	-5353
-1)	-5354
▁vel	-5355
CO	-5356
▁records	-5357
▁Found	-5358
produ	-5359
▁ideas	-5360
▁Board	-5361
conne	-5362
ME	-5363
▁filter	-5364
▁foreign	-5365
▁collected	-5366
▁Super	-5367
▁strategy	-5368
▁East	-5369
idel	-5370
▁complaint	-5371
▁growing	-5372
"><	-5373
▁legis	-5374
thon	-5375
▁combined	-5376
▁forces	-5377
▁belong	-5378
bm	-5379
▁alternative	-5380
▁advantage	-5381
▁proport	-5382
▁evolution	-5383
▁Ben	-5384
▁agent	-5385
1⁄2	-5386
anging	-5387
▁Wil	-5388
▁park	-5389
ANT	-5390
▁huge	-5391
agement	-5392
**)	-5393
▁entry	-5394
▁(4	-5395
▁bud	-5396
▁2014	-5397
ст	-5398
Form	-5399
was	-5400
itivity	-5401
circ	-5402
parent	-5403
▁stock	-5404
▁Street	-5405
start	-5406
▁Inte	-5407
▁controls	-5408
▁chemical	-5409
71	-5410
▁mix	-5411
▁remaining	-5412
▁denied	-5413
▁bab	-5414
▁Sur	-5415
▁fif	-5416
▁Port	-5417
▁gal	-5418
▁sav	-5419
▁tested	-5420
itis	-5421
▁exercise	-5422
▁mo	-5423
▁absor	-5424
▁2013	-5425
▁Del	-5426
▁composition	-5427
lem	-5428
▁Cur	-5429
▁pros	-5430
▁empt	-5431
▁probability	-5432
▁2015	-5433
▁script	-5434
PT	-5435
▁minor	-5436
▁module	-5437
▁association	-5438
.\	-5439
▁serve	-5440
▁slightly	-5441
({\	-5442
▁Please	-5443
ensuremath	-5444
▁symb	-5445
▁despite	-5446
idem	-5447
ading	-5448
ca	-5449
▁operations	-5450
▁Set	-5451
Or	-5452
▁workers	-5453
▁summer	-5454
▁Chinese	-5455
vi	-5456
▁occurred	-5457
▁England	-5458
▁born	-5459
▁corpor	-5460
▁Air	-5461
▁People	-5462
State	-5463
▁sch	-5464
▁circumstances	-5465
can	-5466
▁football	-5467
_{2	-5468
81	-5469
Lambda	-5470
▁Michael	-5471
']	-5472
▁firm	-5473
▁distinct	-5474
DR	-5475
Size	-5476
▁agreed	-5477
▁entered	-5478
▁distributed	-5479
▁α	-5480
▁confirmed	-5481
▁Green	-5482
▁&=	-5483
▁drink	-5484
▁Phil	-5485
ura	-5486
▁investigation	-5487
▁Face	-5488
▁correlation	-5489
▁offered	-5490
▁$1	-5491
▁std	-5492
▁ring	-5493
bolds	-5494
[\	-5495
▁induced	-5496
▁algorithm	-5497
▁holding	-5498
▁summary	-5499
▁Ret	-5500
ba	-5501
isd	-5502
▁Ca	-5503
ipment	-5504
▁technique	-5505
true	-5506
▁tempor	-5507
▁TO	-5508
▁chain	-5509
▁format	-5510
▁molecular	-5511
▁efficient	-5512
▁affected	-5513
from	-5514
▁encour	-5515
di	-5516
uing	-5517
▁opening	-5518
▁survival	-5519
03	-5520
▁analyzed	-5521
▁plans	-5522
▁sud	-5523
icity	-5524
▁missing	-5525
▁pal	-5526
но	-5527
going	-5528
which	-5529
ita	-5530
▁cycle	-5531
▁healthy	-5532
▁bow	-5533
▁sup	-5534
▁situ	-5535
rian	-5536
▁traditional	-5537
ville	-5538
boldsymbol	-5539
▁Code	-5540
▁officer	-5541
▁characters	-5542
iders	-5543
▁George	-5544
=1	-5545
▁families	-5546
▁9.	-5547
▁rul	-5548
▁chrom	-5549
▁recorded	-5550
adow	-5551
isher	-5552
▁drugs	-5553
▁society	-5554
▁digital	-5555
▁cardi	-5556
etry	-5557
▁calls	-5558
▁absence	-5559
▁nut	-5560
▁catch	-5561
ía	-5562
▁conver	-5563
****************	-5564
coh	-5565
▁relation	-5566
▁trig	-5567
▁thank	-5568
▁animal	-5569
▁cir	-5570
cor	-5571
▁instr	-5572
▁classes	-5573
image	-5574
▁symptoms	-5575
edom	-5576
My	-5577
Comp	-5578
Of	-5579
ners	-5580
▁intended	-5581
arp	-5582
▁volt	-5583
▁34	-5584
lication	-5585
▁wish	-5586
▁2017	-5587
▁surgery	-5588
=1}	-5589
▁minimum	-5590
▁um	-5591
▁comfort	-5592
That	-5593
[]	-5594
▁Tom	-5595
▁warm	-5596
▁driver	-5597
CM	-5598
▁Day	-5599
▁fra	-5600
itled	-5601
elled	-5602
TT	-5603
resents	-5604
());	-5605
'.	-5606
kin	-5607
ignment	-5608
▁science	-5609
▁repeated	-5610
hi	-5611
▁generation	-5612
eds	-5613
▁una	-5614
greg	-5615
▁Lou	-5616
isation	-5617
▁estimated	-5618
▁frag	-5619
SI	-5620
core	-5621
▁Bel	-5622
mbox	-5623
▁Met	-5624
SH	-5625
▁wants	-5626
▁suggests	-5627
ologies	-5628
▁disp	-5629
▁causes	-5630
▁drop	-5631
allel	-5632
▁judge	-5633
Int	-5634
▁herself	-5635
▁derived	-5636
▁resolution	-5637
Phi	-5638
osc	-5639
▁rank	-5640
▁III	-5641
uffer	-5642
actor	-5643
umin	-5644
▁handle	-5645
▁0.5	-5646
▁cryst	-5647
▁beg	-5648
▁weap	-5649
▁Alex	-5650
ander	-5651
izations	-5652
ki	-5653
▁whatever	-5654
zon	-5655
▁Supreme	-5656
▁2010	-5657
▁conventional	-5658
▁organization	-5659
▁student	-5660
riage	-5661
▁Canada	-5662
poss	-5663
▁external	-5664
▁Ber	-5665
2]	-5666
▁Ill	-5667
ferent	-5668
▁AL	-5669
iat	-5670
cks	-5671
Context	-5672
fected	-5673
▁joint	-5674
arant	-5675
▁Thanks	-5676
▁protection	-5677
▁Texas	-5678
▁sudden	-5679
▁bill	-5680
Info	-5681
lt	-5682
cknow	-5683
prime	-5684
▁discussion	-5685
asure	-5686
arc	-5687
▁extent	-5688
AV	-5689
▁biggest	-5690
▁Commun	-5691
ua	-5692
▁enzym	-5693
▁smooth	-5694
▁Bank	-5695
▁efforts	-5696
▁~~	-5697
▁WH	-5698
ро	-5699
▁income	-5700
▁spirit	-5701
▁requirements	-5702
▁testimony	-5703
▁bone	-5704
With	-5705
▁kids	-5706
\|	-5707
ushed	-5708
.](	-5709
subset	-5710
▁reb	-5711
sf	-5712
▁-3*	-5713
ya	-5714
08	-5715
▁strugg	-5716
kg	-5717
▁Techn	-5718
open	-5719
▁arms	-5720
mic	-5721
▁creating	-5722
▁represents	-5723
^−	-5724
mail	-5725
▁lit	-5726
▁Germany	-5727
▁thread	-5728
rich	-5729
otyp	-5730
▁DE	-5731
▁nuclear	-5732
▁wire	-5733
▁dry	-5734
▁rise	-5735
lands	-5736
otimes	-5737
how	-5738
▁coe	-5739
▁responses	-5740
ted	-5741
ART	-5742
▁и	-5743
▁faith	-5744
▁shared	-5745
inity	-5746
▁News	-5747
burg	-5748
antly	-5749
▁library	-5750
BL	-5751
▁""	-5752
what	-5753
AND	-5754
▁sentence	-5755
▁Before	-5756
▁noise	-5757
▁Micro	-5758
illa	-5759
▁Class	-5760
▁mobile	-5761
▁RE	-5762
▁Bi	-5763
▁latter	-5764
ivery	-5765
ymph	-5766
▁Lord	-5767
Index	-5768
▁stood	-5769
▁stre	-5770
▁Smith	-5771
▁template	-5772
▁France	-5773
▁contained	-5774
▁kit	-5775
Sigma	-5776
▁employees	-5777
▁implic	-5778
())	-5779
hens	-5780
etes	-5781
▁patterns	-5782
▁Western	-5783
kappa	-5784
ror	-5785
▁decreased	-5786
▁diagnosis	-5787
▁announced	-5788
RS	-5789
▁covered	-5790
▁Union	-5791
yr	-5792
▁PD	-5793
▁loop	-5794
▁election	-5795
esis	-5796
▁behavi	-5797
▁incorpor	-5798
▁kid	-5799
▁(3)	-5800
▁breast	-5801
▁196	-5802
irty	-5803
▁errors	-5804
▁scene	-5805
▁offers	-5806
ör	-5807
▁interested	-5808
pled	-5809
rep	-5810
▁officers	-5811
-20	-5812
▁adding	-5813
ilit	-5814
▁download	-5815
▁doll	-5816
node	-5817
ко	-5818
izer	-5819
!!	-5820
}}{	-5821
▁earth	-5822
▁cele	-5823
oom	-5824
▁inflamm	-5825
pass	-5826
▁husband	-5827
Event	-5828
10.	-5829
write	-5830
▁buffer	-5831
▁properly	-5832
▁supply	-5833
Serv	-5834
MO	-5835
▁------	-5836
▁north	-5837
ansion	-5838
tem	-5839
cs	-5840
ocy	-5841
-12	-5842
▁manif	-5843
▁anc	-5844
.*	-5845
Not	-5846
▁echo	-5847
athe	-5848
ometry	-5849
▁profile	-5850
▁describe	-5851
eless	-5852
▁bool	-5853
sens	-5854
▁catal	-5855
ione	-5856
▁Tra	-5857
▁~~~	-5858
▁Mary	-5859
▁literature	-5860
▁sust	-5861
▁completed	-5862
▁signals	-5863
▁plants	-5864
▁largest	-5865
▁stars	-5866
▁button	-5867
(&	-5868
▁Sum	-5869
▁dose	-5870
ilarly	-5871
▁sea	-5872
▁agents	-5873
orrow	-5874
▁authority	-5875
▁symm	-5876
▁credit	-5877
▁indeed	-5878
▁regist	-5879
▁diet	-5880
▁mes	-5881
ivo	-5882
▁quantum	-5883
chers	-5884
▁earn	-5885
▁citiz	-5886
▁latest	-5887
▁carbon	-5888
check	-5889
▁2011	-5890
▁commercial	-5891
▁analyses	-5892
▁jurisd	-5893
▁ing	-5894
▁Div	-5895
house	-5896
pc	-5897
▁leaving	-5898
▁teacher	-5899
▁ran	-5900
▁Mem	-5901
▁UN	-5902
▁reli	-5903
isted	-5904
opic	-5905
▁bes	-5906
van	-5907
Cs	-5908
▁appar	-5909
IO	-5910
▁Sal	-5911
ulin	-5912
▁referred	-5913
inder	-5914
▁sales	-5915
06	-5916
▁interests	-5917
▁Christian	-5918
▁suff	-5919
YS	-5920
▁concentrations	-5921
▁church	-5922
_{{\	-5923
edy	-5924
▁12.	-5925
othing	-5926
rape	-5927
ptions	-5928
▁interactions	-5929
▁1:	-5930
ras	-5931
▁wel	-5932
▁stopped	-5933
▁existence	-5934
▁Eq	-5935
▁epis	-5936
abla	-5937
▁Facebook	-5938
night	-5939
▁master	-5940
▁Robert	-5941
▁42	-5942
sa	-5943
▁Company	-5944
▁remained	-5945
▁measurements	-5946
▁purposes	-5947
het	-5948
▁importance	-5949
RL	-5950
▁esc	-5951
▁mouth	-5952
▁driving	-5953
▁empty	-5954
Config	-5955
▁breath	-5956
▁pure	-5957
▁>>	-5958
page	-5959
▁learned	-5960
induced	-5961
▁thanks	-5962
▁customers	-5963
▁decrease	-5964
block	-5965
hol	-5966
▁NS	-5967
500	-5968
▁ye	-5969
▁о	-5970
▁standing	-5971
},\	-5972
}}_	-5973
uate	-5974
▁remainder	-5975
▁mechanisms	-5976
roller	-5977
ias	-5978
▁officials	-5979
▁Vir	-5980
▁Jer	-5981
▁7,	-5982
▁daughter	-5983
stract	-5984
▁stories	-5985
▁insp	-5986
▁convert	-5987
/201	-5988
▁38	-5989
▁nan	-5990
▁mir	-5991
nonumber	-5992
▁eat	-5993
▁train	-5994
orry	-5995
▁mental	-5996
▁neighbor	-5997
▁particles	-5998
range	-5999
xture	-6000
current	-6001
▁uniform	-6002
ja	-6003
outhern	-6004
▁criminal	-6005
▁brow	-6006
nam	-6007
▁gain	-6008
bert	-6009
LA	-6010
▁pool	-6011
that	-6012
hr	-6013
▁Council	-6014
apers	-6015
specific	-6016
▁Mond	-6017
▁membrane	-6018
phone	-6019
4}	-6020
requ	-6021
ipped	-6022
ilde	-6023
ameter	-6024
▁knows	-6025
object	-6026
normal	-6027
▁Rob	-6028
▁(!	-6029
▁protected	-6030
▁spot	-6031
cence	-6032
▁projects	-6033
▁neuro	-6034
QL	-6035
▁conserv	-6036
▁Bre	-6037
▁Time	-6038
▁involve	-6039
▁FOR	-6040
itions	-6041
▁waiting	-6042
▁stable	-6043
▁greatest	-6044
▁polic	-6045
▁possibility	-6046
▁conclusion	-6047
▁crow	-6048
icians	-6049
▁equivalent	-6050
ando	-6051
▁farm	-6052
▁Friday	-6053
▁operating	-6054
▁exchange	-6055
▁attract	-6056
▁fluid	-6057
▁vote	-6058
iate	-6059
sole	-6060
▁2018	-6061
▁guy	-6062
▁apparatus	-6063
▁Obama	-6064
▁11.	-6065
▁sequences	-6066
▁CA	-6067
▁transmission	-6068
rog	-6069
frame	-6070
▁electron	-6071
▁director	-6072
Des	-6073
▁indicates	-6074
▁sq	-6075
post	-6076
▁Service	-6077
▁Form	-6078
(2	-6079
▁powerful	-6080
ructions	-6081
▁billion	-6082
stein	-6083
▁flex	-6084
run	-6085
▁Only	-6086
Array	-6087
alysis	-6088
▁elim	-6089
▁arbit	-6090
▁returns	-6091
▁square	-6092
▁Mad	-6093
▁elev	-6094
▁receptor	-6095
▁peace	-6096
▁Use	-6097
.[@	-6098
oes	-6099
▁appre	-6100
NT	-6101
▁AR	-6102
▁dra	-6103
Field	-6104
ords	-6105
▁flat	-6106
▁south	-6107
▁outcome	-6108
ker	-6109
eric	-6110
▁shut	-6111
▁origin	-6112
▁Four	-6113
▁street	-6114
▁genetic	-6115
▁Di	-6116
front	-6117
▁Copy	-6118
oyal	-6119
▁confirm	-6120
5){	-6121
Code	-6122
▁diab	-6123
07	-6124
▁2)	-6125
aneous	-6126
nabla	-6127
▁Church	-6128
aming	-6129
▁Work	-6130
reate	-6131
▁identity	-6132
▁extended	-6133
▁expert	-6134
**]{},	-6135
▁secondary	-6136
▁veloc	-6137
nb	-6138
num	-6139
olf	-6140
)-	-6141
▁controlled	-6142
Hand	-6143
win	-6144
ears	-6145
ora	-6146
sey	-6147
▁equipment	-6148
▁movie	-6149
▁eventually	-6150
▁spectrum	-6151
▁31	-6152
▁CT	-6153
▁nav	-6154
▁Jes	-6155
content	-6156
▁finite	-6157
▁cere	-6158
▁Good	-6159
▁maintain	-6160
▁insurance	-6161
MT	-6162
▁generate	-6163
BA	-6164
uries	-6165
▁ship	-6166
iveness	-6167
▁Their	-6168
▁appoint	-6169
”.	-6170
▁represented	-6171
▁configuration	-6172
▁Institute	-6173
▁Ins	-6174
är	-6175
last	-6176
▁Kore	-6177
▁mostly	-6178
▁0*	-6179
▁exception	-6180
]:	-6181
▁plasma	-6182
▁mouse	-6183
▁categ	-6184
▁excell	-6185
ync	-6186
faces	-6187
ishes	-6188
▁af	-6189
▁[1	-6190
▁Frank	-6191
▁statute	-6192
▁auto	-6193
../../	-6194
jected	-6195
^1	-6196
▁substrate	-6197
▁believed	-6198
▁Na	-6199
▁Where	-6200
▁William	-6201
asks	-6202
▁()	-6203
▁helped	-6204
ani	-6205
▁join	-6206
orders	-6207
▁forth	-6208
▁-4*	-6209
▁examples	-6210
▁Franc	-6211
▁Follow	-6212
nce	-6213
▁debt	-6214
▁Mil	-6215
▁hypothes	-6216
▁lung	-6217
url	-6218
anes	-6219
▁${	-6220
▁Ma	-6221
dy	-6222
▁Great	-6223
ariant	-6224
▁AS	-6225
▁Sunday	-6226
▁relief	-6227
rect	-6228
▁FIG	-6229
born	-6230
antic	-6231
▁plane	-6232
▁charged	-6233
ads	-6234
lif	-6235
▁aren	-6236
rer	-6237
lets	-6238
▁serum	-6239
▁journal	-6240
▁supposed	-6241
▁une	-6242
▁holds	-6243
▁MA	-6244
▁Mag	-6245
itory	-6246
▁fell	-6247
ithub	-6248
actory	-6249
▁ahead	-6250
▁Wed	-6251
▁bright	-6252
2*	-6253
▁voltage	-6254
▁Thomas	-6255
venue	-6256
▁crime	-6257
▁bra	-6258
▁speech	-6259
▁emot	-6260
▁inner	-6261
▁muscle	-6262
▁leaves	-6263
draw	-6264
anges	-6265
09	-6266
▁occurs	-6267
det	-6268
▁Judge	-6269
▁aware	-6270
▁Mrs	-6271
▁digit	-6272
▁Back	-6273
1⁄4	-6274
ampions	-6275
onald	-6276
▁tro	-6277
▁Ant	-6278
-7	-6279
▁diseases	-6280
▁ma	-6281
▁estimate	-6282
▁teams	-6283
agen	-6284
▁schools	-6285
▁CR	-6286
▁reality	-6287
zy	-6288
▁Vol	-6289
▁prosec	-6290
BI	-6291
▁Circuit	-6292
▁excess	-6293
MI	-6294
FC	-6295
title	-6296
▁happens	-6297
Map	-6298
▁MS	-6299
▁extremely	-6300
▁Hall	-6301
ilos	-6302
▁runs	-6303
ih	-6304
▁&\	-6305
▁Japanese	-6306
abilities	-6307
än	-6308
▁balance	-6309
crete	-6310
return	-6311
▁signed	-6312
ATION	-6313
ilder	-6314
▁developing	-6315
▁2008	-6316
▁Tur	-6317
▁seeing	-6318
▁survey	-6319
▁architect	-6320
▁Web	-6321
▁celebr	-6322
iller	-6323
look	-6324
▁gar	-6325
▁Monday	-6326
▁diag	-6327
(0	-6328
▁substantial	-6329
+1}	-6330
▁ON	-6331
▁Brown	-6332
▁morph	-6333
▁Commit	-6334
▁Fin	-6335
▁attorney	-6336
▁films	-6337
aine	-6338
▁chronic	-6339
▁Mex	-6340
▁examined	-6341
").	-6342
CG	-6343
▁SP	-6344
reshold	-6345
▁pour	-6346
-201	-6347
▁tag	-6348
▁SN	-6349
▁IT	-6350
▁issued	-6351
▁nod	-6352
▁ice	-6353
"></	-6354
plify	-6355
▁Instead	-6356
iliar	-6357
▁enem	-6358
▁camera	-6359
▁battle	-6360
▁Mo	-6361
stood	-6362
▁virus	-6363
ipher	-6364
▁representation	-6365
alian	-6366
(0,	-6367
▁efficiency	-6368
uls	-6369
▁Australia	-6370
source	-6371
▁delivery	-6372
▁py	-6373
▁session	-6374
▁finished	-6375
▁desired	-6376
▁Theorem	-6377
▁Bay	-6378
▁Foundation	-6379
▁д	-6380
ena	-6381
amily	-6382
▁leader	-6383
▁agency	-6384
▁intellig	-6385
▁neither	-6386
▁twenty	-6387
DS	-6388
▁colon	-6389
▁appellant	-6390
▁subsequent	-6391
▁om	-6392
▁44	-6393
▁guys	-6394
▁College	-6395
1;	-6396
ifications	-6397
▁nic	-6398
orthern	-6399
▁highlight	-6400
▁Science	-6401
▁depth	-6402
▁Rec	-6403
aa	-6404
rive	-6405
ogene	-6406
▁achieved	-6407
omorph	-6408
gebra	-6409
▁fundament	-6410
▁spl	-6411
▁mel	-6412
▁Tod	-6413
itative	-6414
▁forced	-6415
▁mixed	-6416
-1}	-6417
▁assessment	-6418
ialog	-6419
▁evaluated	-6420
inte	-6421
▁extension	-6422
▁pregn	-6423
▁miles	-6424
utor	-6425
cluding	-6426
▁$2	-6427
▁Ver	-6428
▁curve	-6429
ston	-6430
iler	-6431
▁Book	-6432
▁Find	-6433
ye	-6434
▁liver	-6435
crib	-6436
▁Open	-6437
CON	-6438
/4	-6439
▁chosen	-6440
UE	-6441
api	-6442
▁alcoh	-6443
▁thin	-6444
KE	-6445
▁Nor	-6446
▁networks	-6447
There	-6448
▁directed	-6449
etric	-6450
-9	-6451
▁Que	-6452
▁End	-6453
▁manufacture	-6454
=====	-6455
▁colle	-6456
▁fraction	-6457
▁sac	-6458
▁ER	-6459
olar	-6460
ln	-6461
▁10,	-6462
▁cos	-6463
weight	-6464
▁+=	-6465
▁intent	-6466
▁resear	-6467
▁Lem	-6468
eles	-6469
/5	-6470
istent	-6471
▁thousands	-6472
ORT	-6473
▁typical	-6474
_{1}	-6475
▁explicit	-6476
▁boot	-6477
▁depends	-6478
Node	-6479
▁positions	-6480
▁vary	-6481
▁src	-6482
▁Hel	-6483
▁Dec	-6484
((	-6485
arian	-6486
ortunately	-6487
▁defendants	-6488
▁Ann	-6489
▁criteria	-6490
▁Sl	-6491
▁Hill	-6492
void	-6493
▁League	-6494
▁measurement	-6495
▁River	-6496
aper	-6497
▁Three	-6498
▁2009	-6499
▁Cr	-6500
▁cycl	-6501
Sc	-6502
TO	-6503
▁compounds	-6504
▁iron	-6505
▁environmental	-6506
▁haven	-6507
▁angle	-6508
appe	-6509
▁rich	-6510
▁college	-6511
▁discovered	-6512
▁possibly	-6513
▁8,	-6514
▁filled	-6515
▁Hen	-6516
▁IP	-6517
Request	-6518
GL	-6519
omes	-6520
Color	-6521
▁scheme	-6522
ician	-6523
▁pert	-6524
▁changing	-6525
▁imaging	-6526
Att	-6527
ancing	-6528
care	-6529
▁narrow	-6530
▁Method	-6531
▁adult	-6532
▁Windows	-6533
▁{{\	-6534
▁sin	-6535
▁paint	-6536
▁compens	-6537
▁alt	-6538
gers	-6539
▁receiving	-6540
▁tight	-6541
▁Lu	-6542
▁Appe	-6543
▁king	-6544
▁ordered	-6545
▁allowing	-6546
Out	-6547
ERT	-6548
-19	-6549
imb	-6550
▁acknow	-6551
▁Whe	-6552
apped	-6553
▁investigated	-6554
▁easier	-6555
dimensional	-6556
▁views	-6557
yer	-6558
ashion	-6559
▁tub	-6560
▁isolated	-6561
▁recall	-6562
amine	-6563
▁alter	-6564
▁500	-6565
▁tox	-6566
Ser	-6567
arden	-6568
▁Richard	-6569
▁(1.	-6570
mas	-6571
vol	-6572
▁polar	-6573
▁Gold	-6574
▁cond	-6575
▁relates	-6576
aked	-6577
▁spat	-6578
oking	-6579
▁(18	-6580
▁ED	-6581
▁economy	-6582
annels	-6583
▁pp	-6584
▁detailed	-6585
▁Leg	-6586
ygen	-6587
▁virtual	-6588
teen	-6589
duc	-6590
▁discrim	-6591
▁electronic	-6592
▁lived	-6593
▁defect	-6594
▁batter	-6595
icated	-6596
▁skills	-6597
dots	-6598
possible	-6599
▁query	-6600
▁Field	-6601
ashed	-6602
▁outcomes	-6603
etilde	-6604
▁Russian	-6605
▁0.1	-6606
widetilde	-6607
▁coverage	-6608
▁39	-6609
▁approved	-6610
▁underlying	-6611
dependent	-6612
ostic	-6613
▁ا	-6614
▁fish	-6615
▁integer	-6616
▁Americans	-6617
▁manager	-6618
▁calling	-6619
▁6*	-6620
▁-->	-6621
▁Read	-6622
_{1	-6623
Element	-6624
▁sections	-6625
supplementary	-6626
▁Sing	-6627
▁EX	-6628
▁chief	-6629
"}.	-6630
_,	-6631
▁Cell	-6632
▁twice	-6633
▁employed	-6634
Read	-6635
▁chair	-6636
▁implementation	-6637
▁shock	-6638
▁-5*	-6639
▁Den	-6640
▁Internet	-6641
)/(	-6642
▁jump	-6643
pack	-6644
▁Free	-6645
ре	-6646
▁fab	-6647
▁emph	-6648
Over	-6649
▁amb	-6650
▁Flor	-6651
▁capable	-6652
▁Does	-6653
▁granted	-6654
▁stored	-6655
icted	-6656
▁Association	-6657
▁guide	-6658
1).	-6659
▁Government	-6660
▁entirely	-6661
▁gluc	-6662
▁conc	-6663
_>	-6664
▁Satur	-6665
▁listed	-6666
▁evaluation	-6667
▁2000	-6668
▁acts	-6669
▁tens	-6670
GB	-6671
)).	-6672
ва	-6673
fa	-6674
▁SH	-6675
▁heter	-6676
▁fourth	-6677
▁Committee	-6678
▁metabol	-6679
▁princip	-6680
ocytes	-6681
operative	-6682
^{-	-6683
ship	-6684
ket	-6685
▁incident	-6686
mem	-6687
FS	-6688
▁ju	-6689
▁documents	-6690
▁Bill	-6691
Equ	-6692
▁accuracy	-6693
▁Sil	-6694
▁possess	-6695
FI	-6696
▁decisions	-6697
At	-6698
mt	-6699
▁PR	-6700
▁traffic	-6701
itely	-6702
cup	-6703
▁pages	-6704
▁category	-6705
▁lymph	-6706
ests	-6707
▁intensity	-6708
▁assay	-6709
▁«	-6710
▁quarter	-6711
▁spring	-6712
▁advance	-6713
▁NO	-6714
just	-6715
osh	-6716
▁strongly	-6717
▁duty	-6718
itable	-6719
▁Louis	-6720
00000000	-6721
ola	-6722
▁oblig	-6723
^2^	-6724
after	-6725
**,	-6726
▁Jo	-6727
▁Russia	-6728
MR	-6729
▁leaders	-6730
(1)	-6731
▁Rad	-6732
▁transcript	-6733
rey	-6734
while	-6735
▁scr	-6736
▁statements	-6737
1_	-6738
▁excellent	-6739
▁Party	-6740
▁spend	-6741
▁abuse	-6742
▁confidence	-6743
▁marked	-6744
rid	-6745
▁amaz	-6746
▁sides	-6747
▁religious	-6748
▁accord	-6749
▁mainly	-6750
▁procedures	-6751
▁girls	-6752
▁raise	-6753
reek	-6754
▁terror	-6755
1:	-6756
▁limitations	-6757
▁focused	-6758
▁Tues	-6759
\{	-6760
fee	-6761
PU	-6762
▁percentage	-6763
▁gly	-6764
▁incub	-6765
▁${{\	-6766
▁univers	-6767
▁broken	-6768
IST	-6769
▁minim	-6770
eding	-6771
mand	-6772
▁appreci	-6773
▁bug	-6774
▁arguments	-6775
▁destroy	-6776
▁determination	-6777
▁frequently	-6778
▁cort	-6779
small	-6780
▁compare	-6781
▁regulation	-6782
▁sitting	-6783
▁Last	-6784
▁brand	-6785
▁quiet	-6786
ITH	-6787
▁trees	-6788
▁TR	-6789
standing	-6790
▁immune	-6791
▁plays	-6792
▁smart	-6793
**]{}	-6794
▁obser	-6795
iot	-6796
▁cart	-6797
▁Prof	-6798
▁advert	-6799
▁Results	-6800
INT	-6801
▁advanced	-6802
▁stimul	-6803
dir	-6804
appro	-6805
▁appearance	-6806
;\	-6807
▁RT	-6808
▁fuel	-6809
▁Type	-6810
▁rough	-6811
▁managed	-6812
▁protocol	-6813
▁formula	-6814
▁freedom	-6815
▁administr	-6816
▁corner	-6817
▁pulled	-6818
▁asking	-6819
kins	-6820
sor	-6821
EP	-6822
▁CI	-6823
istan	-6824
▁Scott	-6825
wed	-6826
real	-6827
▁unknown	-6828
▁java	-6829
▁enhance	-6830
▁constitution	-6831
Act	-6832
▁tor	-6833
gression	-6834
imer	-6835
▁Bas	-6836
2_	-6837
ceived	-6838
itud	-6839
okes	-6840
▁notes	-6841
▁ion	-6842
\!	-6843
]),	-6844
FP	-6845
ses	-6846
▁ris	-6847
▁55	-6848
▁depending	-6849
aren	-6850
▁accum	-6851
▁nom	-6852
▁versus	-6853
cial	-6854
})$	-6855
using	-6856
▁intervention	-6857
mes	-6858
▁observations	-6859
▁BO	-6860
▁Copyright	-6861
▁understood	-6862
▁(10	-6863
amber	-6864
▁Its	-6865
▁modified	-6866
ernel	-6867
▁guarant	-6868
▁stack	-6869
Yes	-6870
1],	-6871
icago	-6872
▁pathway	-6873
▁nm	-6874
--[@	-6875
ITY	-6876
anda	-6877
▁jour	-6878
▁adm	-6879
bal	-6880
▁Cle	-6881
akers	-6882
▁sale	-6883
▁explan	-6884
▁planning	-6885
▁installed	-6886
0$	-6887
▁considering	-6888
▁cluster	-6889
1].	-6890
▁recovery	-6891
oster	-6892
▁owner	-6893
▁Put	-6894
▁pas	-6895
dt	-6896
▁seconds	-6897
▁charges	-6898
▁standards	-6899
▁opposite	-6900
▁arrived	-6901
▁approaches	-6902
▁(-	-6903
iner	-6904
===	-6905
▁lie	-6906
▁Life	-6907
MD	-6908
^+^	-6909
local	-6910
▁HIV	-6911
query	-6912
MC	-6913
▁violence	-6914
▁dischar	-6915
▁illustr	-6916
▁assuming	-6917
▁gra	-6918
▁plug	-6919
▁Hence	-6920
▁till	-6921
▁sensitivity	-6922
ido	-6923
▁consult	-6924
kl	-6925
▁Long	-6926
▁jobs	-6927
▁entitled	-6928
cretion	-6929
create	-6930
sin	-6931
▁Despite	-6932
▁walked	-6933
▁tick	-6934
cr	-6935
▁caught	-6936
▁resulted	-6937
▁arter	-6938
▁-6	-6939
▁usual	-6940
▁1](#	-6941
Americ	-6942
▁analog	-6943
▁Gal	-6944
▁candidate	-6945
LS	-6946
Log	-6947
bt	-6948
▁plot	-6949
▁oxid	-6950
▁dil	-6951
▁worse	-6952
({	-6953
▁experienced	-6954
▁Africa	-6955
▁television	-6956
▁salt	-6957
▁Tuesday	-6958
▁Tor	-6959
▁Saturday	-6960
▁disk	-6961
▁pieces	-6962
▁settings	-6963
▁concerns	-6964
▁Mass	-6965
estic	-6966
▁deliver	-6967
▁194	-6968
▁1.2	-6969
▁expansion	-6970
▁galax	-6971
}}_{	-6972
▁Mer	-6973
(-	-6974
▁alleg	-6975
zeta	-6976
ateral	-6977
User	-6978
▁orient	-6979
5).	-6980
ructure	-6981
▁jurisdiction	-6982
▁replic	-6983
▁dream	-6984
asy	-6985
▁propos	-6986
.$$	-6987
sect	-6988
▁Federal	-6989
▁equations	-6990
▁ended	-6991
xe	-6992
UD	-6993
▁conclude	-6994
clusive	-6995
▁scores	-6996
▁(6	-6997
▁joined	-6998
▁suitable	-6999
grees	-7000
▁purchase	-7001
rypt	-7002
▁Project	-7003
▁recognized	-7004
▁egg	-7005
oded	-7006
Bl	-7007
▁tables	-7008
uscript	-7009
osa	-7010
▁critic	-7011
inations	-7012
▁distingu	-7013
▁Mont	-7014
▁competition	-7015
▁Indeed	-7016
▁Bur	-7017
▁numerous	-7018
Inter	-7019
tex	-7020
ursday	-7021
star	-7022
▁investigate	-7023
▁по	-7024
2/	-7025
▁Str	-7026
acle	-7027
olean	-7028
▁warrant	-7029
▁External	-7030
▁vess	-7031
Trans	-7032
”,	-7033
▁64	-7034
▁evaluate	-7035
anta	-7036
doc	-7037
▁seat	-7038
imately	-7039
▁boundary	-7040
▁exposed	-7041
xml	-7042
▁IV	-7043
▁scan	-7044
▁duration	-7045
▁strain	-7046
▁evening	-7047
ROM	-7048
▁Twitter	-7049
▁beat	-7050
▁independ	-7051
▁orders	-7052
▁dé	-7053
▁Non	-7054
▁rac	-7055
▁qui	-7056
ometric	-7057
▁fort	-7058
She	-7059
▁attend	-7060
▁на	-7061
▁gate	-7062
oret	-7063
▁195	-7064
▁married	-7065
▁Er	-7066
▁guard	-7067
flu	-7068
ailed	-7069
ли	-7070
▁Max	-7071
valid	-7072
▁Py	-7073
▁stick	-7074
Oh	-7075
endment	-7076
How	-7077
So	-7078
roke	-7079
▁lose	-7080
▁About	-7081
▁Develop	-7082
▁velocity	-7083
▁goals	-7084
bour	-7085
agger	-7086
github	-7087
▁remark	-7088
▁Carol	-7089
▁parallel	-7090
▁Bet	-7091
Count	-7092
▁displ	-7093
ijms	-7094
ums	-7095
▁Next	-7096
▁bag	-7097
▁hem	-7098
gi	-7099
та	-7100
▁Ze	-7101
▁ble	-7102
cf	-7103
":"	-7104
Date	-7105
ows	-7106
▁reprodu	-7107
▁Office	-7108
▁Defendant	-7109
▁rats	-7110
▁PH	-7111
▁Iran	-7112
▁claimed	-7113
▁conven	-7114
▁Johnson	-7115
▁specified	-7116
bid	-7117
▁CL	-7118
law	-7119
▁willing	-7120
▁accident	-7121
▁fill	-7122
▁revers	-7123
▁Log	-7124
▁god	-7125
nesday	-7126
▁assessed	-7127
▁concerned	-7128
▁consc	-7129
ested	-7130
▁impossible	-7131
ju	-7132
▁preval	-7133
▁photo	-7134
▁widely	-7135
▁draft	-7136
▁Review	-7137
_2$	-7138
▁None	-7139
▁advice	-7140
▁hence	-7141
grade	-7142
andon	-7143
▁au	-7144
▁apart	-7145
▁minute	-7146
▁vacc	-7147
▁statistical	-7148
▁interval	-7149
▁nine	-7150
Image	-7151
3]	-7152
rapeut	-7153
▁accompl	-7154
▁ans	-7155
▁Mean	-7156
▁resource	-7157
lik	-7158
▁Rule	-7159
▁300	-7160
inux	-7161
gt	-7162
▁baby	-7163
▁Chapter	-7164
cut	-7165
▁43	-7166
/\	-7167
▁demonstrate	-7168
rency	-7169
▁ideal	-7170
▁Pri	-7171
▁Arch	-7172
▁mand	-7173
bered	-7174
▁horiz	-7175
▁thr	-7176
gent	-7177
▁becoming	-7178
▁grav	-7179
▁cris	-7180
▁attached	-7181
eller	-7182
▁Peter	-7183
Me	-7184
▁restaur	-7185
▁hall	-7186
Dis	-7187
▁Earth	-7188
ainer	-7189
rip	-7190
▁watching	-7191
▁accepted	-7192
icious	-7193
▁pod	-7194
▁ca	-7195
Up	-7196
▁technical	-7197
▁Give	-7198
▁Count	-7199
Group	-7200
▁Jose	-7201
▁float	-7202
▁Thursday	-7203
▁budget	-7204
)=\	-7205
otten	-7206
▁humans	-7207
utely	-7208
▁contribution	-7209
-000	-7210
▁unable	-7211
▁Big	-7212
▁ton	-7213
Model	-7214
idelines	-7215
▁Who	-7216
result	-7217
▁Secret	-7218
uce	-7219
▁Fore	-7220
▁variation	-7221
▁Star	-7222
▁datas	-7223
▁History	-7224
▁recording	-7225
▁suppl	-7226
▁thereby	-7227
▁fans	-7228
▁keeping	-7229
ko	-7230
▁ends	-7231
▁mM	-7232
▁rub	-7233
▁stret	-7234
▁pet	-7235
▁Florida	-7236
▁Sign	-7237
▁Hy	-7238
▁Disc	-7239
▁formal	-7240
▁sand	-7241
main	-7242
▁nodes	-7243
▁branch	-7244
ка	-7245
▁biological	-7246
▁[2	-7247
▁Francis	-7248
▁familiar	-7249
ildren	-7250
▁cab	-7251
▁Yet	-7252
▁consent	-7253
▁manuscript	-7254
▁2007	-7255
▁domin	-7256
ilty	-7257
▁sweet	-7258
▁́	-7259
▁strict	-7260
▁enforce	-7261
▁testified	-7262
From	-7263
ello	-7264
sts	-7265
▁forg	-7266
OV	-7267
▁conflict	-7268
SL	-7269
roduction	-7270
mo	-7271
▁trials	-7272
▁burden	-7273
▁Mult	-7274
▁populations	-7275
▁rare	-7276
adian	-7277
CF	-7278
vin	-7279
▁encoun	-7280
▁Cap	-7281
▁mission	-7282
▁spoke	-7283
bug	-7284
▁threshold	-7285
▁mixture	-7286
endif	-7287
riend	-7288
▁Wednesday	-7289
▁African	-7290
▁involving	-7291
▁os	-7292
▁favorite	-7293
otted	-7294
▁assembly	-7295
▁applicable	-7296
ridge	-7297
jud	-7298
edia	-7299
▁axis	-7300
orted	-7301
▁trip	-7302
▁1;	-7303
ND	-7304
enance	-7305
Service	-7306
SON	-7307
BP	-7308
GE	-7309
▁improvement	-7310
▁Ir	-7311
▁Spe	-7312
▁od	-7313
▁47	-7314
▁alcohol	-7315
iences	-7316
▁persons	-7317
ulture	-7318
?”	-7319
▁Times	-7320
artic	-7321
▁degrees	-7322
▁neck	-7323
▁phenomen	-7324
▁Sk	-7325
▁Stand	-7326
▁sought	-7327
▁Sand	-7328
)**	-7329
▁decide	-7330
hentic	-7331
YPE	-7332
▁commonly	-7333
▁Est	-7334
▁committed	-7335
▁\>	-7336
▁fellow	-7337
aped	-7338
▁helps	-7339
ponse	-7340
▁constraint	-7341
eli	-7342
▁Apple	-7343
iples	-7344
▁philos	-7345
organ	-7346
▁articles	-7347
OUT	-7348
▁windows	-7349
▁relationships	-7350
Inst	-7351
▁knock	-7352
▁route	-7353
▁seek	-7354
▁49	-7355
▁murder	-7356
▁san	-7357
OG	-7358
▁Po	-7359
те	-7360
▁kne	-7361
height	-7362
▁ped	-7363
war	-7364
▁fle	-7365
▁license	-7366
}}{\	-7367
▁46	-7368
web	-7369
▁signaling	-7370
▁limits	-7371
▁Simplify	-7372
olved	-7373
▁doctor	-7374
▁metric	-7375
claim	-7376
▁suggesting	-7377
▁radiation	-7378
ellular	-7379
▁och	-7380
▁enable	-7381
▁framework	-7382
▁pept	-7383
wing	-7384
▁adequ	-7385
▁aspects	-7386
\<	-7387
xx	-7388
she	-7389
▁:)	-7390
▁Step	-7391
ito	-7392
ochem	-7393
▁Chicago	-7394
▁stability	-7395
src	-7396
▁native	-7397
"})	-7398
▁Wal	-7399
clusions	-7400
▁adults	-7401
▁Offic	-7402
enth	-7403
▁payment	-7404
iverse	-7405
▁concluded	-7406
1.0	-7407
▁pix	-7408
▁EU	-7409
inet	-7410
▁courts	-7411
▁instructions	-7412
▁File	-7413
▁policies	-7414
▁oxygen	-7415
▁2-	-7416
Line	-7417
▁Fre	-7418
▁Paris	-7419
ching	-7420
▁margin	-7421
▁customer	-7422
▁indicating	-7423
▁department	-7424
thm	-7425
ifies	-7426
▁citizens	-7427
ivation	-7428
lar	-7429
AGE	-7430
▁fold	-7431
▁°	-7432
▁absolute	-7433
cdots	-7434
▁abund	-7435
aven	-7436
▁challenges	-7437
▁Central	-7438
Reg	-7439
▁dys	-7440
▁gro	-7441
ivered	-7442
▁[]	-7443
omal	-7444
▁slowly	-7445
▁Program	-7446
▁dress	-7447
▁Mel	-7448
▁union	-7449
▁communities	-7450
product	-7451
herent	-7452
▁hole	-7453
▁dynamic	-7454
Fil	-7455
Message	-7456
▁potentially	-7457
▁101	-7458
PH	-7459
▁village	-7460
▁Bu	-7461
[0]	-7462
▁hell	-7463
▁Du	-7464
IE	-7465
▁Soft	-7466
▁oral	-7467
▁conversation	-7468
▁climate	-7469
Fl	-7470
Box	-7471
▁accurate	-7472
athy	-7473
cp	-7474
▁depart	-7475
▁necessarily	-7476
▁loved	-7477
▁partial	-7478
▁Virgin	-7479
▁cellular	-7480
▁mine	-7481
process	-7482
▁pharm	-7483
▁Bus	-7484
Ent	-7485
▁sole	-7486
▁continues	-7487
GA	-7488
▁trouble	-7489
▁replaced	-7490
▁Maybe	-7491
▁prices	-7492
▁afford	-7493
▁12,	-7494
ilton	-7495
▁Never	-7496
▁signs	-7497
▁truly	-7498
iams	-7499
▁Those	-7500
They	-7501
otherapy	-7502
▁linked	-7503
▁ww	-7504
▁pil	-7505
▁molecules	-7506
default	-7507
▁recip	-7508
ни	-7509
nbsp	-7510
Pr	-7511
▁hal	-7512
▁cogn	-7513
pload	-7514
model	-7515
▁dimension	-7516
▁secure	-7517
▁Charles	-7518
▁annual	-7519
▁assigned	-7520
▁Jesus	-7521
▁Nav	-7522
▁sounds	-7523
SU	-7524
etime	-7525
scale	-7526
▁mortality	-7527
▁merely	-7528
acent	-7529
▁2006	-7530
first	-7531
pes	-7532
▁Men	-7533
▁pointed	-7534
▁perman	-7535
▁massive	-7536
▁walking	-7537
▁acute	-7538
▁Elect	-7539
▁Name	-7540
▁luck	-7541
▁65	-7542
▁interpretation	-7543
ante	-7544
▁faster	-7545
omer	-7546
▁cof	-7547
eting	-7548
ader	-7549
ala	-7550
iary	-7551
oration	-7552
▁Information	-7553
▁pursu	-7554
▁polymer	-7555
▁shell	-7556
▁gap	-7557
legal	-7558
▁Ext	-7559
▁conj	-7560
ressive	-7561
▁mRNA	-7562
defined	-7563
NF	-7564
arsh	-7565
vas	-7566
ector	-7567
▁launch	-7568
undle	-7569
▁π	-7570
▁Vis	-7571
EO	-7572
ás	-7573
▁characterized	-7574
▁HT	-7575
▁marriage	-7576
▁Plan	-7577
{2	-7578
▁terminal	-7579
md	-7580
LC	-7581
azine	-7582
hemat	-7583
▁Jim	-7584
INE	-7585
▁instrument	-7586
▁decades	-7587
▁implies	-7588
▁sister	-7589
▁maps	-7590
▁PA	-7591
oly	-7592
1^	-7593
▁housing	-7594
▁synd	-7595
▁facilit	-7596
helial	-7597
mi	-7598
▁DO	-7599
asc	-7600
▁interact	-7601
▁defe	-7602
▁funds	-7603
12.	-7604
▁dans	-7605
▁fees	-7606
ifferent	-7607
▁tom	-7608
water	-7609
▁accel	-7610
▁scope	-7611
del	-7612
▁Given	-7613
tw	-7614
▁plastic	-7615
ée	-7616
▁reverse	-7617
▁vitro	-7618
comple	-7619
▁partner	-7620
▁smallest	-7621
▁channels	-7622
-1,	-7623
ben	-7624
▁assumed	-7625
dict	-7626
▁fabric	-7627
\]).	-7628
▁supporting	-7629
▁<!	-7630
▁larg	-7631
▁relax	-7632
▁divers	-7633
▁feat	-7634
aded	-7635
▁ven	-7636
▁starts	-7637
▁soul	-7638
ributes	-7639
▁segment	-7640
▁prolif	-7641
:"	-7642
▁investment	-7643
tra	-7644
▁13.	-7645
▁simpl	-7646
ogenic	-7647
▁Fil	-7648
▁dynamics	-7649
▁sensitive	-7650
▁Among	-7651
▁react	-7652
▁turns	-7653
▁Check	-7654
$)	-7655
▁thoughts	-7656
▁closer	-7657
▁compound	-7658
fold	-7659
▁composite	-7660
▁SO	-7661
▁visible	-7662
▁dependent	-7663
(2)	-7664
▁Arab	-7665
select	-7666
▁layers	-7667
▁fundamental	-7668
▁microsc	-7669
▁McC	-7670
▁admitted	-7671
▁Look	-7672
▁Social	-7673
GT	-7674
▁COM	-7675
brid	-7676
aks	-7677
▁editor	-7678
▁radi	-7679
▁font	-7680
▁definitely	-7681
▁protest	-7682
▁photos	-7683
........	-7684
▁www	-7685
▁11,	-7686
▁typename	-7687
BU	-7688
▁predicted	-7689
▁vot	-7690
▁effectively	-7691
▁arbitr	-7692
▁flav	-7693
▁β	-7694
▁emission	-7695
▁thousand	-7696
▁proved	-7697
never	-7698
▁9,	-7699
CTION	-7700
argin	-7701
▁fluores	-7702
nel	-7703
▁consideration	-7704
▁contribute	-7705
▁Equ	-7706
▁(7	-7707
▁reson	-7708
mid	-7709
▁fan	-7710
yan	-7711
▁split	-7712
▁56	-7713
rows	-7714
▁perm	-7715
acks	-7716
▁employee	-7717
dule	-7718
▁bare	-7719
▁cash	-7720
000000	-7721
▁14.	-7722
▁vision	-7723
▁hat	-7724
▁occasion	-7725
▁Islam	-7726
▁PRO	-7727
▁identification	-7728
Sub	-7729
▁Java	-7730
▁Dire	-7731
oral	-7732
▁sched	-7733
▁Prote	-7734
▁coh	-7735
zer	-7736
▁Fire	-7737
▁objective	-7738
▁Fed	-7739
erated	-7740
","	-7741
▁Tim	-7742
▁particle	-7743
pg	-7744
apse	-7745
▁passing	-7746
▁Tem	-7747
▁Mur	-7748
fol	-7749
ampionship	-7750
▁tit	-7751
001){	-7752
ima	-7753
rehens	-7754
}^2	-7755
missions	-7756
▁replace	-7757
target	-7758
▁telling	-7759
▁argues	-7760
▁tail	-7761
ether	-7762
▁tissues	-7763
▁Li	-7764
▁antibody	-7765
▁Ref	-7766
▁Justice	-7767
=0.	-7768
▁commission	-7769
▁waste	-7770
▁realized	-7771
▁Grand	-7772
▁hur	-7773
▁baseline	-7774
▁contem	-7775
Manager	-7776
Co	-7777
▁toler	-7778
equiv	-7779
_1$	-7780
0\	-7781
format	-7782
▁wound	-7783
▁Jones	-7784
ophy	-7785
oked	-7786
▁plaintiffs	-7787
▁exceed	-7788
linear	-7789
▁disput	-7790
▁Exper	-7791
ented	-7792
▁rail	-7793
rine	-7794
▁immig	-7795
[1]	-7796
▁Human	-7797
▁strategies	-7798
seud	-7799
▁75	-7800
▁fashion	-7801
▁messages	-7802
ontal	-7803
▁largely	-7804
▁sqrt	-7805
▁HD	-7806
▁conference	-7807
▁Martin	-7808
▁unsigned	-7809
PO	-7810
ASS	-7811
mosp	-7812
▁requirement	-7813
▁simult	-7814
:\	-7815
▁####	-7816
▁Mount	-7817
▁automatically	-7818
onym	-7819
▁hero	-7820
▁principle	-7821
ials	-7822
▁estimates	-7823
▁gent	-7824
▁attacks	-7825
▁Cam	-7826
▁informed	-7827
GC	-7828
▁rig	-7829
▁Roman	-7830
▁asym	-7831
ati	-7832
▁violation	-7833
inton	-7834
▁guilty	-7835
▁laser	-7836
then	-7837
▁instant	-7838
▁expensive	-7839
[12	-7840
.**	-7841
▁Society	-7842
▁blocks	-7843
SR	-7844
▁offset	-7845
▁scientific	-7846
▁closely	-7847
▁Additionally	-7848
▁suc	-7849
tag	-7850
}=\	-7851
Ab	-7852
▁120	-7853
▁Av	-7854
nav	-7855
12,	-7856
ela	-7857
▁examination	-7858
plant	-7859
▁lic	-7860
▁defic	-7861
road	-7862
▁matters	-7863
▁cities	-7864
▁54	-7865
aneously	-7866
▁2019	-7867
uum	-7868
acc	-7869
▁employment	-7870
}{2	-7871
eness	-7872
▁plain	-7873
▁forget	-7874
▁bodies	-7875
▁Pan	-7876
uled	-7877
"),	-7878
▁0.2	-7879
▁desk	-7880
ipping	-7881
urop	-7882
▁walls	-7883
////////	-7884
▁Camp	-7885
%.	-7886
▁grown	-7887
▁discretion	-7888
Pe	-7889
▁diabetes	-7890
▁Click	-7891
outs	-7892
▁drawn	-7893
▁zone	-7894
chron	-7895
▁proportion	-7896
▁preced	-7897
▁outer	-7898
wer	-7899
VD	-7900
▁flag	-7901
▁warn	-7902
▁provision	-7903
)*	-7904
▁Ve	-7905
button	-7906
ACK	-7907
▁Los	-7908
▁putting	-7909
/-	-7910
▁collabor	-7911
▁sight	-7912
▁_{	-7913
▁IF	-7914
ção	-7915
CI	-7916
rapeutic	-7917
Stream	-7918
▁pH	-7919
▁fo	-7920
▁sheet	-7921
only	-7922
▁assistance	-7923
Query	-7924
▁fet	-7925
▁View	-7926
false	-7927
▁clar	-7928
▁beam	-7929
▁dropped	-7930
▁amounts	-7931
▁glucose	-7932
acket	-7933
cat	-7934
▁Jul	-7935
3/	-7936
▁epit	-7937
iously	-7938
Sp	-7939
unit	-7940
rac	-7941
_4	-7942
▁intention	-7943
sd	-7944
▁Play	-7945
▁poll	-7946
ogenesis	-7947
▁hundreds	-7948
▁info	-7949
ulating	-7950
▁15,	-7951
▁Sa	-7952
theless	-7953
build	-7954
▁3-	-7955
▁Call	-7956
▁len	-7957
▁observation	-7958
▁practices	-7959
\[[@	-7960
▁intra	-7961
▁mic	-7962
adding	-7963
▁desire	-7964
▁ja	-7965
▁noticed	-7966
▁successfully	-7967
)*(	-7968
scrib	-7969
QU	-7970
▁render	-7971
▁Lee	-7972
-01	-7973
▁ban	-7974
▁(8	-7975
го	-7976
▁PCR	-7977
▁distribut	-7978
▁Minister	-7979
▁consumption	-7980
ри	-7981
tab	-7982
▁sensor	-7983
▁supports	-7984
▁pu	-7985
▁arrang	-7986
▁solve	-7987
ductor	-7988
▁SM	-7989
▁Land	-7990
▁academ	-7991
▁river	-7992
▁Williams	-7993
▁offense	-7994
▁responsibility	-7995
▁hun	-7996
▁consists	-7997
has	-7998
▁legisl	-7999
▁Thank	-8000
▁embed	-8001
▁Accordingly	-8002
▁Educ	-8003
▁electrical	-8004
sen	-8005
png	-8006
isters	-8007
▁significance	-8008
▁1.0	-8009
}\,	-8010
▁recommended	-8011
▁seeking	-8012
▁subs	-8013
}},	-8014
fast	-8015
▁funding	-8016
▁worry	-8017
▁cu	-8018
▁vivo	-8019
▁chart	-8020
▁veget	-8021
▁disappe	-8022
▁Sir	-8023
▁estate	-8024
▁integrated	-8025
▁register	-8026
▁ske	-8027
▁Interest	-8028
▁innov	-8029
▁internet	-8030
erior	-8031
▁senior	-8032
▁Best	-8033
layout	-8034
▁wear	-8035
''	-8036
▁depos	-8037
rot	-8038
/7	-8039
▁[[	-8040
2;	-8041
mann	-8042
▁spaces	-8043
inite	-8044
iki	-8045
~~	-8046
▁stem	-8047
▁Medical	-8048
▁bath	-8049
Ne	-8050
▁structural	-8051
TA	-8052
▁Care	-8053
athered	-8054
ου	-8055
▁gender	-8056
▁damages	-8057
▁era	-8058
▁figures	-8059
ABLE	-8060
▁explore	-8061
▁apparently	-8062
▁align	-8063
▁seed	-8064
olecules	-8065
▁og	-8066
udd	-8067
▁suddenly	-8068
▁speaking	-8069
▁reducing	-8070
BO	-8071
avel	-8072
fonts	-8073
▁rid	-8074
▁writer	-8075
▁negot	-8076
▁neurons	-8077
▁cars	-8078
▁dangerous	-8079
▁removal	-8080
ottom	-8081
▁м	-8082
▁subt	-8083
▁pictures	-8084
▁supplement	-8085
inates	-8086
▁Power	-8087
▁pit	-8088
▁Army	-8089
▁Object	-8090
▁clients	-8091
▁somewhat	-8092
isc	-8093
▁lig	-8094
▁sugar	-8095
▁fer	-8096
**2.	-8097
minimal	-8098
▁causing	-8099
▁Math	-8100
▁lift	-8101
▁Bob	-8102
^4	-8103
▁spr	-8104
▁initially	-8105
▁``	-8106
ivated	-8107
pet	-8108
SM	-8109
▁Ro	-8110
▁..	-8111
▁95%	-8112
101	-8113
life	-8114
System	-8115
▁Island	-8116
ifts	-8117
DER	-8118
▁SU	-8119
-17	-8120
urally	-8121
Ref	-8122
▁vast	-8123
6){	-8124
-69	-8125
▁cards	-8126
▁thermal	-8127
▁(9	-8128
▁justice	-8129
▁reform	-8130
▁honest	-8131
▁kick	-8132
▁accounts	-8133
▁bio	-8134
▁Wood	-8135
)?	-8136
ensus	-8137
▁blow	-8138
▁audience	-8139
▁pairs	-8140
▁Atl	-8141
▁Home	-8142
▁vul	-8143
eper	-8144
').	-8145
American	-8146
iger	-8147
▁Pet	-8148
▁bias	-8149
^2+	-8150
▁fing	-8151
▁experiences	-8152
case	-8153
NO	-8154
▁extends	-8155
rl	-8156
aria	-8157
odds	-8158
▁army	-8159
▁mechanical	-8160
dat	-8161
▁primarily	-8162
bu	-8163
▁subset	-8164
▁delivered	-8165
display	-8166
▁-7	-8167
igan	-8168
▁weather	-8169
Property	-8170
apache	-8171
▁pump	-8172
.</	-8173
5}	-8174
▁promote	-8175
ira	-8176
▁surg	-8177
400	-8178
▁practical	-8179
effect	-8180
wered	-8181
>(	-8182
▁stages	-8183
▁compact	-8184
▁representative	-8185
▁¶	-8186
message	-8187
▁Wall	-8188
ji	-8189
▁flux	-8190
▁laun	-8191
obe	-8192
▁locations	-8193
bound	-8194
▁remote	-8195
▁Again	-8196
▁Republican	-8197
▁»	-8198
nut	-8199
widehat	-8200
option	-8201
▁Lemma	-8202
▁ng	-8203
ups	-8204
▁principal	-8205
ni	-8206
▁Today	-8207
▁Based	-8208
▁2:	-8209
▁targets	-8210
▁organic	-8211
TE	-8212
▁Old	-8213
BD	-8214
▁Ñ	-8215
Method	-8216
▁feedback	-8217
conf	-8218
mediate	-8219
▁finish	-8220
{{	-8221
▁Prov	-8222
▁turning	-8223
▁container	-8224
▁concerning	-8225
▁WITH	-8226
▁aid	-8227
▁enhanced	-8228
▁atmosp	-8229
▁displayed	-8230
▁boys	-8231
▁Road	-8232
▁milk	-8233
gments	-8234
▁coupling	-8235
Do	-8236
▁closest	-8237
▁pig	-8238
-0.	-8239
▁delet	-8240
▁kitchen	-8241
neg	-8242
▁describes	-8243
▁(0	-8244
uns	-8245
▁smile	-8246
▁acting	-8247
.1	-8248
▁listen	-8249
▁sky	-8250
▁adopted	-8251
▁researchers	-8252
▁optimal	-8253
gal	-8254
haust	-8255
300	-8256
▁hadn	-8257
▁dual	-8258
sensors	-8259
▁penal	-8260
oung	-8261
json	-8262
▁nerv	-8263
▁Vict	-8264
ighter	-8265
img	-8266
,_	-8267
▁binary	-8268
▁ho	-8269
▁sed	-8270
▁Appellant	-8271
▁Introduction	-8272
▁monitoring	-8273
lang	-8274
zing	-8275
▁vide	-8276
sing	-8277
Rep	-8278
ussion	-8279
▁surrounding	-8280
▁Jeff	-8281
▁sector	-8282
event	-8283
▁repair	-8284
▁involves	-8285
▁Police	-8286
media	-8287
▁console	-8288
buf	-8289
▁-\	-8290
dep	-8291
▁profession	-8292
▁brown	-8293
▁famous	-8294
▁API	-8295
▁deploy	-8296
▁dram	-8297
1\	-8298
GR	-8299
ysym	-8300
documentclass	-8301
▁\*	-8302
oder	-8303
▁sorry	-8304
uable	-8305
▁minimal	-8306
▁Bal	-8307
▁dust	-8308
▁Down	-8309
▁Dev	-8310
▁spatial	-8311
kes	-8312
▁Penn	-8313
▁perspective	-8314
3*	-8315
ERR	-8316
▁Top	-8317
lie	-8318
▁horse	-8319
▁manage	-8320
▁residents	-8321
▁wine	-8322
▁snow	-8323
32_	-8324
15,	-8325
status	-8326
▁tells	-8327
arks	-8328
PI	-8329
▁Ira	-8330
▁"\	-8331
▁Senate	-8332
^2\	-8333
▁Ell	-8334
▁maintained	-8335
noon	-8336
Well	-8337
summary	-8338
▁antibodies	-8339
▁Software	-8340
ayout	-8341
}-	-8342
Button	-8343
▁Die	-8344
▁uncertain	-8345
▁characteristic	-8346
▁von	-8347
**5	-8348
iological	-8349
Psi	-8350
FR	-8351
▁lowest	-8352
▁Chief	-8353
▁ment	-8354
▁prompt	-8355
▁behaviour	-8356
▁fighting	-8357
you	-8358
▁inhibition	-8359
▁100%	-8360
iral	-8361
▁Control	-8362
▁coach	-8363
▁mask	-8364
▁purs	-8365
▁wealth	-8366
▁Determ	-8367
▁Consider	-8368
-09	-8369
hydro	-8370
oston	-8371
▁imagine	-8372
ao	-8373
▁på	-8374
▁GL	-8375
NN	-8376
▁sick	-8377
▁Report	-8378
▁strains	-8379
▁picking	-8380
▁politics	-8381
▁Hospital	-8382
▁injection	-8383
uv	-8384
Source	-8385
▁Security	-8386
▁namespace	-8387
▁propag	-8388
ication	-8389
▁OS	-8390
control	-8391
▁Henry	-8392
▁72	-8393
▁menu	-8394
▁150	-8395
▁superior	-8396
▁algebra	-8397
▁hidden	-8398
yg	-8399
▁Cath	-8400
▁median	-8401
▁cloud	-8402
▁creation	-8403
OH	-8404
TC	-8405
▁vit	-8406
▁Es	-8407
next	-8408
▁sad	-8409
▁bind	-8410
setlength	-8411
BM	-8412
ación	-8413
▁chapter	-8414
Controller	-8415
ensed	-8416
▁originally	-8417
▁Model	-8418
▁suf	-8419
▁carrying	-8420
▁youth	-8421
▁discovery	-8422
west	-8423
cean	-8424
▁NE	-8425
▁habit	-8426
▁Ama	-8427
▁fro	-8428
▁determining	-8429
ona	-8430
}+	-8431
▁Make	-8432
▁newsp	-8433
▁contro	-8434
rible	-8435
ipl	-8436
▁clock	-8437
liament	-8438
▁Muslim	-8439
unte	-8440
▁promot	-8441
▁constructed	-8442
▁tasks	-8443
2:	-8444
▁evident	-8445
▁\-	-8446
▁lies	-8447
iden	-8448
amss	-8449
▁explanation	-8450
rif	-8451
▁driven	-8452
mathsf	-8453
HS	-8454
LR	-8455
▁deaths	-8456
clear	-8457
Aut	-8458
▁amino	-8459
▁bought	-8460
▁7*	-8461
▁Author	-8462
▁institution	-8463
▁mail	-8464
▁amazing	-8465
Vert	-8466
amssymb	-8467
▁soil	-8468
▁bigger	-8469
▁Cast	-8470
▁preparation	-8471
bsy	-8472
fit	-8473
▁crisis	-8474
2.0	-8475
util	-8476
▁ال	-8477
▁escape	-8478
▁coffee	-8479
▁hotel	-8480
creen	-8481
3).	-8482
amsbsy	-8483
▁declared	-8484
▁stead	-8485
▁preferred	-8486
▁division	-8487
rons	-8488
▁Span	-8489
aft	-8490
▁immediate	-8491
▁pip	-8492
ellar	-8493
▁[1](#	-8494
▁finds	-8495
"]	-8496
▁fant	-8497
Wh	-8498
▁Recent	-8499
▁disorder	-8500
ERE	-8501
Hz	-8502
▁diameter	-8503
matrix	-8504
-15	-8505
greek	-8506
▁Oper	-8507
▁flight	-8508
▁weekend	-8509
amsfonts	-8510
sup	-8511
▁accordance	-8512
▁lots	-8513
▁km	-8514
irable	-8515
▁classical	-8516
aze	-8517
prop	-8518
▁cataly	-8519
▁extend	-8520
amsmath	-8521
uster	-8522
writ	-8523
lines	-8524
rsfs	-8525
▁knowing	-8526
▁Image	-8527
▁dollars	-8528
mathrsfs	-8529
▁grew	-8530
iatric	-8531
▁absolutely	-8532
orters	-8533
▁57	-8534
▁\{	-8535
▁Nov	-8536
▁differential	-8537
▁winter	-8538
▁wrt	-8539
▁Tre	-8540
press	-8541
byte	-8542
wasysym	-8543
▁implemented	-8544
▁sports	-8545
abb	-8546
▁forming	-8547
▁calc	-8548
-----	-8549
upgreek	-8550
ws	-8551
ür	-8552
▁recognition	-8553
▁13,	-8554
▁16,	-8555
\]),	-8556
▁BY	-8557
▁[3	-8558
▁Si	-8559
за	-8560
2).	-8561
▁Microsoft	-8562
-18	-8563
▁correctly	-8564
▁regression	-8565
▁Current	-8566
Ext	-8567
▁recur	-8568
▁Color	-8569
DNA	-8570
▁respective	-8571
ICE	-8572
▁shoulder	-8573
▁ol	-8574
▁vertical	-8575
▁κ	-8576
▁essentially	-8577
▁contributions	-8578
▁Return	-8579
▁Virginia	-8580
▁posted	-8581
umer	-8582
weet	-8583
atural	-8584
▁organizations	-8585
idemargin	-8586
-16	-8587
128	-8588
▁emergency	-8589
oddsidemargin	-8590
▁odd	-8591
▁facilities	-8592
▁debate	-8593
▁Ms	-8594
▁synthesis	-8595
▁Ram	-8596
uh	-8597
ori	-8598
▁directory	-8599
▁anyway	-8600
zo	-8601
▁rent	-8602
▁watched	-8603
Script	-8604
:201	-8605
▁chick	-8606
}{-69	-8607
▁coast	-8608
▁fraud	-8609
Net	-8610
ista	-8611
▁cultural	-8612
▁opportunities	-8613
▁spending	-8614
riers	-8615
ados	-8616
▁raw	-8617
▁Lo	-8618
▁ANY	-8619
▁Division	-8620
▁shel	-8621
▁gast	-8622
nger	-8623
▁bear	-8624
DB	-8625
▁identical	-8626
▁genome	-8627
null	-8628
▁Round	-8629
arl	-8630
3~	-8631
▁2](#	-8632
)^{	-8633
client	-8634
▁weapons	-8635
▁Similarly	-8636
▁furn	-8637
Action	-8638
▁Description	-8639
▁updated	-8640
Point	-8641
▁£	-8642
++)	-8643
1),	-8644
▁emotional	-8645
▁west	-8646
▁tip	-8647
astern	-8648
▁DC	-8649
▁Order	-8650
cers	-8651
▁Date	-8652
▁cro	-8653
▁prevalence	-8654
▁58	-8655
▁democr	-8656
▁intelligence	-8657
-1.	-8658
▁surve	-8659
▁52	-8660
▁pathways	-8661
▁14,	-8662
pert	-8663
▁strange	-8664
▁episode	-8665
▁yellow	-8666
onia	-8667
▁rapidly	-8668
▁Cup	-8669
▁Pers	-8670
atrix	-8671
▁nu	-8672
'$	-8673
▁0.4	-8674
002){	-8675
scr	-8676
Call	-8677
▁authorities	-8678
▁categories	-8679
▁thor	-8680
Rec	-8681
------	-8682
▁2004	-8683
args	-8684
▁Following	-8685
▁mob	-8686
▁400	-8687
ishment	-8688
▁bars	-8689
▁Lib	-8690
▁obviously	-8691
rium	-8692
▁submitted	-8693
/(-	-8694
▁Mexico	-8695
FO	-8696
▁2005	-8697
ila	-8698
context	-8699
▁shop	-8700
achment	-8701
ATA	-8702
▁apopt	-8703
TS	-8704
▁chest	-8705
▁Haw	-8706
▁circle	-8707
([	-8708
▁-10	-8709
▁candidates	-8710
▁surgical	-8711
▁Conf	-8712
▁rect	-8713
]--[@	-8714
ipt	-8715
▁scal	-8716
▁pin	-8717
▁fly	-8718
▁publication	-8719
End	-8720
▁Aff	-8721
▁flo	-8722
hab	-8723
iana	-8724
▁export	-8725
▁separated	-8726
std	-8727
▁examine	-8728
на	-8729
▁excited	-8730
▁symbol	-8731
onents	-8732
▁σ	-8733
▁stone	-8734
▁wra	-8735
▁argued	-8736
▁crystal	-8737
Client	-8738
uan	-8739
▁Rock	-8740
▁0.05	-8741
▁(4)	-8742
Per	-8743
fections	-8744
▁mas	-8745
▁hurt	-8746
/6	-8747
▁marketing	-8748
▁rational	-8749
▁topic	-8750
▁Club	-8751
▁53	-8752
▁inqu	-8753
▁66	-8754
▁CS	-8755
▁presum	-8756
AY	-8757
values	-8758
▁ultimately	-8759
▁denote	-8760
otypes	-8761
DM	-8762
isting	-8763
▁peripher	-8764
css	-8765
▁consequences	-8766
▁realize	-8767
DC	-8768
Base	-8769
property	-8770
▁reserv	-8771
EE	-8772
▁worst	-8773
▁hypothesis	-8774
▁transformation	-8775
ECT	-8776
high	-8777
▁younger	-8778
▁ru	-8779
▁Real	-8780
▁disorders	-8781
oir	-8782
▁meat	-8783
_0$	-8784
▁classification	-8785
▁abstract	-8786
▁curves	-8787
▁Op	-8788
lymp	-8789
search	-8790
quare	-8791
▁permission	-8792
▁Far	-8793
▁Jac	-8794
▁operators	-8795
▁Iraq	-8796
▁edges	-8797
▁1.5	-8798
▁Academ	-8799
▁assign	-8800
Version	-8801
Bar	-8802
▁ancient	-8803
har	-8804
▁supra	-8805
^-	-8806
▁typed	-8807
▁Key	-8808
▁exhaust	-8809
rition	-8810
▁neutral	-8811
▁differ	-8812
▁inequ	-8813
${	-8814
▁finger	-8815
▁maintenance	-8816
▁offering	-8817
pdf	-8818
anol	-8819
▁principles	-8820
▁helping	-8821
gypt	-8822
enu	-8823
iox	-8824
▁homes	-8825
▁fruit	-8826
friend	-8827
rolled	-8828
▁rotation	-8829
▁planet	-8830
▁suspect	-8831
▁Several	-8832
&\	-8833
match	-8834
▁Hot	-8835
▁1-	-8836
split	-8837
▁reader	-8838
▁Though	-8839
called	-8840
============	-8841
omatic	-8842
▁Hamilton	-8843
▁posts	-8844
▁executive	-8845
Number	-8846
▁vehicles	-8847
▁argue	-8848
▁territ	-8849
▁(199	-8850
▁YOU	-8851
▁Lake	-8852
foot	-8853
▁businesses	-8854
▁syndrome	-8855
▁Ter	-8856
▁assault	-8857
▁neighborhood	-8858
.100	-8859
▁coc	-8860
án	-8861
▁recover	-8862
Frame	-8863
ski	-8864
▁IC	-8865
]^.	-8866
▁ε	-8867
▁acquired	-8868
▁carefully	-8869
▁copyright	-8870
▁theoret	-8871
▁temperatures	-8872
III	-8873
▁succeed	-8874
▁battery	-8875
▁Journal	-8876
terior	-8877
▁aggreg	-8878
▁Start	-8879
▁Still	-8880
▁powers	-8881
OK	-8882
card	-8883
request	-8884
bel	-8885
▁chamber	-8886
▁FA	-8887
Content	-8888
iser	-8889
▁Sar	-8890
▁aside	-8891
reatment	-8892
▁Jackson	-8893
▁fiber	-8894
▁Services	-8895
utch	-8896
▁answers	-8897
▁Profess	-8898
▁refused	-8899
▁Georg	-8900
▁east	-8901
▁spectra	-8902
▁metast	-8903
▁Did	-8904
▁capture	-8905
Fe	-8906
▁answered	-8907
▁osc	-8908
▁island	-8909
▁buildings	-8910
▁trend	-8911
▁wed	-8912
▁laugh	-8913
▁comprehens	-8914
▁therapeutic	-8915
▁5-	-8916
▁centre	-8917
▁tube	-8918
yles	-8919
▁Common	-8920
▁FROM	-8921
▁99	-8922
▁totally	-8923
Input	-8924
ircraft	-8925
Ass	-8926
▁afternoon	-8927
Che	-8928
▁versions	-8929
▁*)	-8930
▁gift	-8931
▁Canadian	-8932
erman	-8933
▁drag	-8934
ifer	-8935
entry	-8936
▁eigen	-8937
isely	-8938
▁Ari	-8939
▁Labor	-8940
ema	-8941
▁initi	-8942
▁overl	-8943
▁remind	-8944
▁taste	-8945
avas	-8946
wa	-8947
▁Spring	-8948
▁discover	-8949
▁shadow	-8950
▁normally	-8951
▁gall	-8952
▁sod	-8953
attering	-8954
▁Rom	-8955
▁helpful	-8956
▁mutations	-8957
▁faces	-8958
▁cav	-8959
▁songs	-8960
▁Fort	-8961
▁applying	-8962
▁incidence	-8963
idents	-8964
ige	-8965
EXT	-8966
▁facility	-8967
▁dogs	-8968
▁20,	-8969
▁planned	-8970
▁incred	-8971
▁gest	-8972
▁contents	-8973
DP	-8974
.-	-8975
▁Lar	-8976
CV	-8977
▁serving	-8978
▁Line	-8979
Handler	-8980
uma	-8981
▁Const	-8982
▁Water	-8983
▁conversion	-8984
treated	-8985
▁requested	-8986
▁crack	-8987
▁rose	-8988
▁legs	-8989
▁Capt	-8990
▁Secretary	-8991
▁Corp	-8992
▁reconst	-8993
▁IR	-8994
▁semicon	-8995
▁Medic	-8996
▁ourselves	-8997
lu	-8998
▁transcription	-8999
▁Right	-9000
▁-8	-9001
rants	-9002
mond	-9003
▁Eth	-9004
lements	-9005
▁WAR	-9006
▁Spanish	-9007
ador	-9008
▁Mot	-9009
▁0.3	-9010
icate	-9011
▁acids	-9012
END	-9013
–19	-9014
umes	-9015
▁thickness	-9016
▁Card	-9017
▁eating	-9018
▁<!--	-9019
▁59	-9020
mL	-9021
▁infer	-9022
▁conviction	-9023
}|	-9024
▁historical	-9025
▁Ig	-9026
BR	-9027
qquad	-9028
};	-9029
.’	-9030
▁Italian	-9031
16,	-9032
▁counts	-9033
▁$(\	-9034
Head	-9035
▁attempts	-9036
▁Development	-9037
ochond	-9038
▁Joe	-9039
▁controvers	-9040
iro	-9041
TM	-9042
})\	-9043
▁Perhaps	-9044
▁boost	-9045
XX	-9046
▁injuries	-9047
▁manip	-9048
▁extensive	-9049
▁surfaces	-9050
▁depression	-9051
▁rain	-9052
▁Corpor	-9053
▁wheel	-9054
▁Special	-9055
▁acknowled	-9056
▁bacteria	-9057
▁tumors	-9058
.4	-9059
find	-9060
ет	-9061
▁Clinton	-9062
isor	-9063
▁ein	-9064
|---	-9065
▁Christmas	-9066
▁nurs	-9067
▁enemy	-9068
▁-12	-9069
CIT	-9070
▁instruction	-9071
)|	-9072
▁Case	-9073
ned	-9074
▁$3	-9075
▁Analysis	-9076
rene	-9077
▁patent	-9078
▁surprise	-9079
▁circul	-9080
▁dinner	-9081
13,	-9082
▁intel	-9083
▁substantially	-9084
anner	-9085
▁regime	-9086
orne	-9087
▁asc	-9088
bro	-9089
ZE	-9090
▁soc	-9091
]$	-9092
▁promise	-9093
▁Pac	-9094
PRO	-9095
▁orth	-9096
-11	-9097
▁Women	-9098
inson	-9099
▁journey	-9100
▁193	-9101
allow	-9102
LD	-9103
▁como	-9104
▁password	-9105
▁url	-9106
align	-9107
▁nam	-9108
aba	-9109
expected	-9110
Po	-9111
NAME	-9112
▁abandon	-9113
fill	-9114
▁cov	-9115
▁Cy	-9116
ali	-9117
▁prohib	-9118
▁screening	-9119
dx	-9120
▁Jewish	-9121
▁trib	-9122
▁performing	-9123
▁roles	-9124
▁transferred	-9125
Result	-9126
▁situations	-9127
When	-9128
▁Boston	-9129
▁guidelines	-9130
gence	-9131
ester	-9132
▁religion	-9133
▁Kn	-9134
▁logic	-9135
rolog	-9136
▁integration	-9137
▁[4	-9138
oids	-9139
nc	-9140
rivate	-9141
▁alloc	-9142
▁Gre	-9143
neq	-9144
loc	-9145
LECT	-9146
▁artist	-9147
▁sharp	-9148
▁committee	-9149
▁assumption	-9150
▁Joseph	-9151
▁Mike	-9152
tax	-9153
▁proliferation	-9154
essions	-9155
▁permit	-9156
▁2.0	-9157
server	-9158
+1)	-9159
ometimes	-9160
▁kinds	-9161
▁lean	-9162
ped	-9163
sch	-9164
▁teaching	-9165
rh	-9166
▁owned	-9167
▁requests	-9168
▁increasingly	-9169
PCR	-9170
▁Britain	-9171
▁cohort	-9172
▁Organ	-9173
olt	-9174
layer	-9175
▁Blue	-9176
▁instruct	-9177
▁engaged	-9178
tx	-9179
▁rein	-9180
PM	-9181
_1\	-9182
output	-9183
▁enzyme	-9184
én	-9185
▁reporting	-9186
ruption	-9187
▁recognize	-9188
▁trigger	-9189
uting	-9190
▁solar	-9191
▁complicated	-9192
▁Australian	-9193
▁audio	-9194
ASE	-9195
▁SC	-9196
▁insulin	-9197
▁feels	-9198
stack	-9199
▁1000	-9200
▁controller	-9201
▁lens	-9202
▁das	-9203
▁rib	-9204
▁carcin	-9205
▁crowd	-9206
Bu	-9207
*/	-9208
iva	-9209
enger	-9210
▁suppose	-9211
▁reads	-9212
▁crucial	-9213
▁б	-9214
25,	-9215
▁kernel	-9216
▁sizes	-9217
▁addressed	-9218
▁sharing	-9219
{1}	-9220
▁somewhere	-9221
▁alpha	-9222
▁Director	-9223
▁producing	-9224
▁neglig	-9225
▁wearing	-9226
▁biom	-9227
▁ubuntu	-9228
▁fairly	-9229
sche	-9230
▁moments	-9231
▁retrie	-9232
▁encoding	-9233
aved	-9234
▁Ps	-9235
cribed	-9236
▁affirm	-9237
▁equally	-9238
▁extreme	-9239
▁purchased	-9240
▁papers	-9241
▁browser	-9242
)))	-9243
}\\	-9244
▁alk	-9245
▁degrad	-9246
▁Education	-9247
▁leadership	-9248
▁subsequently	-9249
aylor	-9250
▁miR	-9251
▁broke	-9252
▁suffered	-9253
isa	-9254
14,	-9255
icide	-9256
ERS	-9257
▁gather	-9258
▁warning	-9259
▁Italy	-9260
▁Jon	-9261
▁begins	-9262
▁beta	-9263
UP	-9264
NC	-9265
home	-9266
▁oscill	-9267
▁bits	-9268
contin	-9269
▁correlated	-9270
eling	-9271
▁"[	-9272
▁reliable	-9273
center	-9274
icular	-9275
▁radical	-9276
"}),	-9277
attice	-9278
▁ec	-9279
▁Bern	-9280
ortion	-9281
▁liability	-9282
MB	-9283
pers	-9284
▁Appeals	-9285
▁silver	-9286
▁chose	-9287
Start	-9288
▁soldiers	-9289
erk	-9290
▁fault	-9291
▁Ep	-9292
ventions	-9293
▁Civil	-9294
▁Democratic	-9295
asts	-9296
▁Administ	-9297
▁adjacent	-9298
nergy	-9299
unicip	-9300
▁COU	-9301
{1}{2	-9302
ль	-9303
oured	-9304
▁msgid	-9305
mode	-9306
nic	-9307
xiety	-9308
ть	-9309
▁approval	-9310
AF	-9311
(1,	-9312
0.5	-9313
tyle	-9314
illy	-9315
▁ath	-9316
▁Through	-9317
▁compat	-9318
▁resident	-9319
▁Android	-9320
▁happening	-9321
acer	-9322
▁grid	-9323
▁Il	-9324
▁Daniel	-9325
▁Town	-9326
obj	-9327
▁sig	-9328
fd	-9329
▁Material	-9330
▁setup	-9331
▁Van	-9332
▁reviewed	-9333
▁forest	-9334
▁Enter	-9335
▁introduce	-9336
emia	-9337
▁colors	-9338
ologic	-9339
▁replied	-9340
▁mu	-9341
frast	-9342
$(	-9343
~3~	-9344
▁grade	-9345
fortunately	-9346
▁Angeles	-9347
apes	-9348
One	-9349
ibilities	-9350
▁hydrogen	-9351
▁PS	-9352
▁wonderful	-9353
addr	-9354
▁manifest	-9355
________________	-9356
agues	-9357
power	-9358
▁Light	-9359
oria	-9360
▁simulation	-9361
▁BE	-9362
1/2	-9363
Don	-9364
▁markers	-9365
enter	-9366
][	-9367
▁Total	-9368
TP	-9369
zi	-9370
UC	-9371
▁Collect	-9372
android	-9373
elly	-9374
HE	-9375
▁Ohio	-9376
▁league	-9377
▁shooting	-9378
▁pra	-9379
estival	-9380
▁Hon	-9381
▁domestic	-9382
▁confident	-9383
▁illness	-9384
▁tort	-9385
Override	-9386
bul	-9387
▁bringing	-9388
▁Show	-9389
▁advoc	-9390
assert	-9391
▁\|	-9392
▁magnitude	-9393
▁IM	-9394
▁Royal	-9395
15.	-9396
▁Page	-9397
ynom	-9398
ican	-9399
ACE	-9400
▁wet	-9401
een	-9402
14.	-9403
sembly	-9404
▁perfectly	-9405
▁treatments	-9406
1"	-9407
▁bridge	-9408
▁industrial	-9409
▁illegal	-9410
eah	-9411
▁stands	-9412
▁presentation	-9413
▁dos	-9414
OB	-9415
▁[^	-9416
attr	-9417
-08	-9418
▁Young	-9419
IES	-9420
sequently	-9421
▁Donald	-9422
▁millions	-9423
ouch	-9424
▁sho	-9425
OCK	-9426
▁exit	-9427
Us	-9428
ourse	-9429
rat	-9430
▁separation	-9431
coin	-9432
▁THIS	-9433
sign	-9434
▁Init	-9435
itar	-9436
UI	-9437
▁moves	-9438
fficients	-9439
append	-9440
Default	-9441
▁Sec	-9442
root	-9443
ruptcy	-9444
Layout	-9445
▁imper	-9446
GET	-9447
:30	-9448
▁newly	-9449
▁Trust	-9450
ilib	-9451
module	-9452
▁passage	-9453
▁modify	-9454
▁periods	-9455
▁copies	-9456
▁blind	-9457
▁proceedings	-9458
▁provisions	-9459
▁owners	-9460
note	-9461
▁medicine	-9462
▁för	-9463
13.	-9464
▁coupled	-9465
▁0.8	-9466
show	-9467
▁radius	-9468
month	-9469
▁conscious	-9470
▁cognitive	-9471
▁attempted	-9472
▁contributed	-9473
▁68	-9474
▁methyl	-9475
▁Korea	-9476
▁gel	-9477
▁Attorney	-9478
razil	-9479
▁summar	-9480
perties	-9481
inical	-9482
▁possession	-9483
irus	-9484
▁favour	-9485
10,	-9486
▁hardware	-9487
lections	-9488
▁obst	-9489
dec	-9490
▁Carolina	-9491
▁simulations	-9492
hire	-9493
▁documentation	-9494
^{2}	-9495
▁95	-9496
▁phr	-9497
buntu	-9498
▁laboratory	-9499
▁Egypt	-9500
▁grounds	-9501
number	-9502
▁flash	-9503
vals	-9504
▁modes	-9505
▁infected	-9506
▁Bit	-9507
▁fingers	-9508
avascript	-9509
▁Take	-9510
▁unus	-9511
▁decade	-9512
=0$	-9513
Status	-9514
▁30,	-9515
adata	-9516
▁dedicated	-9517
▁resc	-9518
▁composed	-9519
import	-9520
google	-9521
▁hate	-9522
▁comfortable	-9523
▁registered	-9524
▁ordinary	-9525
asi	-9526
▁Business	-9527
▁university	-9528
inals	-9529
▁Game	-9530
▁guid	-9531
4*	-9532
▁18,	-9533
estion	-9534
ла	-9535
▁pursuant	-9536
▁entertain	-9537
▁Gar	-9538
static	-9539
▁integral	-9540
▁accommod	-9541
▁theme	-9542
▁blank	-9543
▁columns	-9544
▁alive	-9545
▁county	-9546
stat	-9547
▁Have	-9548
oxy	-9549
▁rounded	-9550
▁arrested	-9551
▁sport	-9552
▁quad	-9553
▁reactions	-9554
▁regional	-9555
▁disag	-9556
FOR	-9557
▁bin	-9558
▁induction	-9559
▁differentiation	-9560
▁storm	-9561
▁regulations	-9562
fraid	-9563
▁scenario	-9564
omething	-9565
▁surprised	-9566
▁ré	-9567
river	-9568
▁theorem	-9569
▁hybrid	-9570
▁cutting	-9571
NE	-9572
:2	-9573
▁participate	-9574
▁semiconductor	-9575
▁plenty	-9576
▁dies	-9577
▁heads	-9578
▁clusters	-9579
▁permanent	-9580
▁Build	-9581
ogether	-9582
▁meth	-9583
▁crypt	-9584
▁Ha	-9585
aph	-9586
▁observe	-9587
▁transaction	-9588
▁consequence	-9589
▁alert	-9590
-13	-9591
▁pushed	-9592
▁winning	-9593
▁coron	-9594
▁discharge	-9595
▁Text	-9596
-------	-9597
eping	-9598
▁GO	-9599
▁statistics	-9600
▁reviews	-9601
▁strike	-9602
▁valuable	-9603
Why	-9604
utory	-9605
La	-9606
▁adverse	-9607
duction	-9608
▁afraid	-9609
▁til	-9610
▁tun	-9611
▁translation	-9612
▁Six	-9613
010	-9614
razy	-9615
▁viral	-9616
▁Fund	-9617
▁Lab	-9618
6/	-9619
=2	-9620
4).	-9621
▁passion	-9622
▁GN	-9623
▁NY	-9624
001	-9625
▁polym	-9626
▁conform	-9627
▁prejud	-9628
▁Love	-9629
▁fract	-9630
▁77	-9631
▁constitutional	-9632
▁corresponds	-9633
▁Hor	-9634
▁suffering	-9635
Can	-9636
▁stores	-9637
▁volunte	-9638
▁saved	-9639
▁aircraft	-9640
scape	-9641
appoint	-9642
▁teeth	-9643
Response	-9644
▁Amazon	-9645
prote	-9646
▁representing	-9647
▁BOOST	-9648
olid	-9649
▁surprising	-9650
approx	-9651
▁manufacturing	-9652
▁houses	-9653
▁boat	-9654
▁header	-9655
▁inflammatory	-9656
las	-9657
▁momentum	-9658
▁spectral	-9659
▁aver	-9660
▁Hand	-9661
▁Turn	-9662
▁calculate	-9663
ARE	-9664
aret	-9665
▁67	-9666
▁17.	-9667
▁ride	-9668
▁0$	-9669
▁3)	-9670
▁tall	-9671
▁110	-9672
ictionary	-9673
▁diversity	-9674
▁dimensions	-9675
▁stronger	-9676
HD	-9677
▁15.	-9678
01,	-9679
▁Chris	-9680
▁Coll	-9681
endo	-9682
▁dependence	-9683
▁institutions	-9684
molecules	-9685
▁markets	-9686
▁stroke	-9687
]\	-9688
ende	-9689
▁opposed	-9690
asty	-9691
▁advent	-9692
▁17,	-9693
▁Pak	-9694
▁satisfied	-9695
▁plur	-9696
▁difficulty	-9697
terday	-9698
▁semi	-9699
▁drawing	-9700
▁sever	-9701
txt	-9702
▁checked	-9703
▁Team	-9704
(0)	-9705
▁Cross	-9706
▁>=	-9707
▁fails	-9708
▁rows	-9709
▁invent	-9710
▁tab	-9711
▁Conne	-9712
spe	-9713
strong	-9714
▁msgstr	-9715
▁minister	-9716
▁partition	-9717
▁entr	-9718
▁NA	-9719
▁electrode	-9720
amente	-9721
chain	-9722
.^[@	-9723
nership	-9724
elihood	-9725
▁truck	-9726
▁schedule	-9727
▁thereof	-9728
agnetic	-9729
▁stabil	-9730
▁fuck	-9731
anted	-9732
▁repeat	-9733
▁Muse	-9734
▁architecture	-9735
rosc	-9736
ctic	-9737
iration	-9738
▁killing	-9739
▁Comput	-9740
▁moral	-9741
▁tiny	-9742
ULT	-9743
▁launched	-9744
▁Kenn	-9745
▁decay	-9746
▁statistically	-9747
)^2	-9748
▁Bow	-9749
▁missed	-9750
%),	-9751
prot	-9752
▁explo	-9753
▁probe	-9754
▁Number	-9755
▁41	-9756
▁coefficient	-9757
▁anywhere	-9758
▁opposition	-9759
▁ingred	-9760
▁fragment	-9761
▁keys	-9762
graph	-9763
▁vulner	-9764
▁EV	-9765
▁Gra	-9766
▁fed	-9767
uint	-9768
}}^	-9769
▁stimulation	-9770
common	-9771
▁regardless	-9772
▁assist	-9773
▁Network	-9774
reams	-9775
bec	-9776
1-\	-9777
▁sustain	-9778
▁steel	-9779
ropy	-9780
▁Engine	-9781
▁Year	-9782
auss	-9783
"}](	-9784
▁Camb	-9785
▁calculation	-9786
▁victory	-9787
ilation	-9788
▁bread	-9789
▁laid	-9790
▁usage	-9791
ounder	-9792
▁coefficients	-9793
xc	-9794
hus	-9795
▁drivers	-9796
▁contrary	-9797
▁iter	-9798
method	-9799
▁Olymp	-9800
}/	-9801
)}\	-9802
▁grab	-9803
▁bil	-9804
▁experts	-9805
▁trained	-9806
▁Pass	-9807
osome	-9808
▁compliance	-9809
ugin	-9810
▁Unfortunately	-9811
▁wherein	-9812
▁$|	-9813
isons	-9814
ova	-9815
stone	-9816
URL	-9817
▁rom	-9818
inction	-9819
▁=======	-9820
▁63	-9821
dem	-9822
▁substance	-9823
iem	-9824
agraph	-9825
▁nearby	-9826
tml	-9827
▁coal	-9828
else	-9829
17,	-9830
["	-9831
▁unw	-9832
author	-9833
▁operate	-9834
▁bon	-9835
actic	-9836
Gu	-9837
▁1990	-9838
▁introduction	-9839
▁breaking	-9840
▁prepare	-9841
▁receptors	-9842
αι	-9843
ql	-9844
▁connections	-9845
▁enforcement	-9846
▁paying	-9847
▁Low	-9848
▁accompan	-9849
nn	-9850
▁MD	-9851
▁acet	-9852
▁urban	-9853
▁125	-9854
▁clothes	-9855
onder	-9856
16.	-9857
▁cooper	-9858
▁progression	-9859
▁technologies	-9860
007	-9861
▁involvement	-9862
▁assets	-9863
▁intermediate	-9864
▁Sher	-9865
▁selling	-9866
century	-9867
vy	-9868
▁Mic	-9869
▁teach	-9870
▁serial	-9871
orial	-9872
▁lad	-9873
FIG	-9874
Web	-9875
yes	-9876
▁Columb	-9877
▁profiles	-9878
column	-9879
▁basically	-9880
Load	-9881
rell	-9882
▁emphas	-9883
▁chlor	-9884
▁sampling	-9885
▁embod	-9886
Filter	-9887
MM	-9888
▁matches	-9889
▁presents	-9890
▁Fred	-9891
▁promin	-9892
▁goods	-9893
▁Main	-9894
pop	-9895
dist	-9896
▁greatly	-9897
auge	-9898
▁adhes	-9899
▁computed	-9900
iture	-9901
▁cardiac	-9902
anche	-9903
aron	-9904
▁gran	-9905
click	-9906
▁privile	-9907
▁ruling	-9908
▁Middle	-9909
IX	-9910
▁corporate	-9911
▁moderate	-9912
itan	-9913
▁streets	-9914
▁Source	-9915
Create	-9916
ynthe	-9917
aration	-9918
▁Determine	-9919
))/(	-9920
▁Ray	-9921
}}^{	-9922
120	-9923
▁URL	-9924
▁facing	-9925
▁kom	-9926
6}	-9927
avelength	-9928
frastructure	-9929
SO	-9930
See	-9931
Te	-9932
sized	-9933
▁applies	-9934
Off	-9935
▁HE	-9936
/1	-9937
▁Error	-9938
▁narr	-9939
▁User	-9940
▁reveal	-9941
▁Southern	-9942
▁Luc	-9943
▁thro	-9944
▁regulatory	-9945
▁authentic	-9946
▁revolution	-9947
▁Methods	-9948
istor	-9949
ande	-9950
▁thirty	-9951
ells	-9952
RANT	-9953
▁xml	-9954
▁Kim	-9955
▁talked	-9956
exec	-9957
lectric	-9958
▁busy	-9959
▁PL	-9960
▁videos	-9961
▁extracted	-9962
▁sufficiently	-9963
▁glad	-9964
regulated	-9965
▁Version	-9966
▁simultaneously	-9967
▁lesions	-9968
▁apartment	-9969
HR	-9970
Gen	-9971
..."	-9972
▁Andrew	-9973
caps	-9974
ospit	-9975
▁disclosed	-9976
▁references	-9977
18,	-9978
ultural	-9979
▁photograph	-9980
▁ster	-9981
▁implied	-9982
▁Bes	-9983
▁anticip	-9984
▁pel	-9985
▁risks	-9986
▁typedef	-9987
▁Amendment	-9988
▁waves	-9989
▁proud	-9990
▁efficacy	-9991
▁complexity	-9992
▁tur	-9993
▁entity	-9994
▁decline	-9995
▁accused	-9996
▁robust	-9997
/10	-9998
▁3:	-9999
urse	-10000
▁arbitrary	-10001
endar	-10002
▁uintptr	-10003
▁horm	-10004
▁Whether	-10005
▁mapping	-10006
Format	-10007
▁mitochond	-10008
▁belief	-10009
▁sear	-10010
▁88	-10011
▁carrier	-10012
▁victims	-10013
▁å	-10014
reland	-10015
pad	-10016
▁Point	-10017
▁rooms	-10018
▁diagnostic	-10019
▁Constitution	-10020
▁migration	-10021
▁embry	-10022
▁calculations	-10023
uity	-10024
▁creates	-10025
▁pseud	-10026
▁gentle	-10027
▁Ox	-10028
▁Ok	-10029
▁Wat	-10030
▁welcome	-10031
▁Force	-10032
WS	-10033
▁infections	-10034
▁Technology	-10035
Conne	-10036
▁suppress	-10037
▁HR	-10038
▁variations	-10039
▁requiring	-10040
▁excluded	-10041
▁Local	-10042
si	-10043
▁activated	-10044
Char	-10045
isition	-10046
options	-10047
▁fee	-10048
▁Lie	-10049
▁specim	-10050
yd	-10051
▁sending	-10052
▁oste	-10053
prise	-10054
▁suscept	-10055
PV	-10056
▁Asia	-10057
eld	-10058
▁Catholic	-10059
mult	-10060
iology	-10061
▁pray	-10062
▁somehow	-10063
▁-1,	-10064
▁satisfy	-10065
▁Music	-10066
▁Effect	-10067
ught	-10068
▁Walk	-10069
IND	-10070
▁Invest	-10071
IGHT	-10072
▁Ol	-10073
-02	-10074
▁24,	-10075
▁smoking	-10076
▁78	-10077
▁readers	-10078
▁mad	-10079
anguages	-10080
▁trace	-10081
▁losing	-10082
▁considerable	-10083
▁10%	-10084
^{-1}	-10085
▁execution	-10086
Err	-10087
▁#:	-10088
▁partially	-10089
▁programming	-10090
▁careful	-10091
▁bands	-10092
▁renew	-10093
во	-10094
-14	-10095
VAL	-10096
ansas	-10097
▁Democrats	-10098
▁taught	-10099
>,	-10100
▁Carl	-10101
▁universe	-10102
:(	-10103
▁rear	-10104
rivial	-10105
itrogen	-10106
▁Design	-10107
positive	-10108
▁token	-10109
rams	-10110
▁withdraw	-10111
▁icon	-10112
▁partners	-10113
▁brings	-10114
▁symmetry	-10115
▁machines	-10116
▁consumer	-10117
onna	-10118
▁seriously	-10119
▁remem	-10120
ucks	-10121
▁tone	-10122
spring	-10123
}})	-10124
_1,\	-10125
▁western	-10126
][@	-10127
▁obj	-10128
▁wal	-10129
HC	-10130
header	-10131
▁Dig	-10132
porary	-10133
▁Jr	-10134
▁Try	-10135
ло	-10136
▁precisely	-10137
▁Dar	-10138
rig	-10139
▁troops	-10140
▁Brazil	-10141
▁Master	-10142
▁administrative	-10143
▁============	-10144
alls	-10145
▁posit	-10146
▁classified	-10147
▁prediction	-10148
▁mounted	-10149
▁loan	-10150
amples	-10151
iano	-10152
▁taxes	-10153
){#	-10154
▁het	-10155
▁ham	-10156
▁crew	-10157
unning	-10158
▁[2](#	-10159
▁thy	-10160
▁restaurant	-10161
▁quantity	-10162
▁contrad	-10163
▁proposal	-10164
▁announce	-10165
unct	-10166
▁kiss	-10167
ethe	-10168
▁grass	-10169
▁correction	-10170
▁staining	-10171
▁retail	-10172
▁Way	-10173
▁flags	-10174
ariable	-10175
▁loaded	-10176
(*	-10177
(_	-10178
---------	-10179
▁2003	-10180
▁adequate	-10181
▁Support	-10182
ère	-10183
esome	-10184
minus	-10185
▁aged	-10186
Page	-10187
▁pulse	-10188
▁Scot	-10189
▁===	-10190
▁intellect	-10191
oved	-10192
chem	-10193
▁polynom	-10194
▁pregnancy	-10195
otox	-10196
▁bat	-10197
▁artists	-10198
leton	-10199
▁choices	-10200
▁Ba	-10201
▁numerical	-10202
▁mutant	-10203
COM	-10204
\"	-10205
▁refe	-10206
▁garden	-10207
▁targeted	-10208
▁anxiety	-10209
▁directions	-10210
▁classic	-10211
STR	-10212
▁elected	-10213
limits	-10214
▁0.7	-10215
▁Rod	-10216
▁cytok	-10217
:200	-10218
▁96	-10219
.;	-10220
▁tract	-10221
▁complications	-10222
ald	-10223
▁Sov	-10224
▁Francisco	-10225
sql	-10226
ти	-10227
axis	-10228
▁Ra	-10229
▁Fox	-10230
/9	-10231
▁payments	-10232
ificate	-10233
003){	-10234
▁amplitude	-10235
uz	-10236
▁declare	-10237
▁veter	-10238
iest	-10239
▁reserved	-10240
▁mamm	-10241
ulous	-10242
▁Without	-10243
▁elevated	-10244
aka	-10245
▁evil	-10246
▁25,	-10247
likely	-10248
▁shouldn	-10249
▁Chem	-10250
▁aer	-10251
▁Media	-10252
▁Taylor	-10253
▁exhibit	-10254
▁16.	-10255
ograp	-10256
two	-10257
ois	-10258
ologist	-10259
ogeneous	-10260
▁liked	-10261
▁Swed	-10262
▁omitted	-10263
▁multip	-10264
▁19,	-10265
▁shares	-10266
▁genu	-10267
HA	-10268
ti	-10269
▁bene	-10270
Pre	-10271
▁induce	-10272
▁incubated	-10273
▁8*	-10274
▁stir	-10275
▁divide	-10276
▁hung	-10277
▁Event	-10278
▁AC	-10279
element	-10280
▁Wilson	-10281
▁})	-10282
umps	-10283
GS	-10284
▁naturally	-10285
▁Greek	-10286
wan	-10287
uten	-10288
▁hier	-10289
▁dealing	-10290
obs	-10291
▁Bon	-10292
MENT	-10293
▁DM	-10294
▁flood	-10295
▁(“	-10296
▁domains	-10297
▁distributions	-10298
▁bacterial	-10299
▁males	-10300
▁inval	-10301
▁butter	-10302
▁sulf	-10303
▁theoretical	-10304
Tem	-10305
▁births	-10306
▁trick	-10307
iol	-10308
▁colour	-10309
_2,	-10310
▁Stan	-10311
plet	-10312
▁$\{	-10313
TYPE	-10314
▁undert	-10315
Mode	-10316
ellee	-10317
zero	-10318
▁gang	-10319
▁delete	-10320
Buffer	-10321
▁|-	-10322
▁whenever	-10323
asant	-10324
▁sys	-10325
▁recom	-10326
step	-10327
▁skill	-10328
▁Major	-10329
▁inflammation	-10330
athan	-10331
▁69	-10332
▁weren	-10333
▁elig	-10334
areness	-10335
▁females	-10336
uct	-10337
▁50%	-10338
▁consec	-10339
URE	-10340
arse	-10341
▁fifth	-10342
una	-10343
▁dict	-10344
uer	-10345
▁beauty	-10346
▁apoptosis	-10347
▁rely	-10348
▁compensation	-10349
▁fluct	-10350
▁renal	-10351
lers	-10352
▁frequent	-10353
▁mater	-10354
Tab	-10355
▁),	-10356
▁hook	-10357
▁1/2	-10358
▁lists	-10359
▁feelings	-10360
▁Due	-10361
▁Custom	-10362
▁precise	-10363
ILL	-10364
▁ongoing	-10365
▁Age	-10366
▁mutation	-10367
▁hardly	-10368
iginal	-10369
▁bomb	-10370
▁bulk	-10371
▁Les	-10372
stable	-10373
▁Hard	-10374
isp	-10375
project	-10376
▁leaf	-10377
▁occas	-10378
▁namely	-10379
▁metabolic	-10380
▁valve	-10381
▁0.9	-10382
▁plates	-10383
▁phosphory	-10384
▁apps	-10385
▁comparable	-10386
▁cyl	-10387
▁honor	-10388
▁(17	-10389
▁peripheral	-10390
pson	-10391
Dec	-10392
azz	-10393
leep	-10394
600	-10395
usal	-10396
▁zu	-10397
▁Valley	-10398
▁ist	-10399
=(	-10400
▁Davis	-10401
▁loading	-10402
▁reput	-10403
▁broadcast	-10404
▁instances	-10405
opher	-10406
ailable	-10407
▁hypert	-10408
▁weapon	-10409
▁absorption	-10410
▁20.	-10411
▁Rest	-10412
▁dataset	-10413
▁marker	-10414
ORD	-10415
▁62	-10416
▁-1.	-10417
▁}\	-10418
▁PT	-10419
▁85	-10420
="#	-10421
▁Food	-10422
buffer	-10423
▁conce	-10424
device	-10425
▁routine	-10426
cit	-10427
▁1980	-10428
ylvan	-10429
▁{{	-10430
▁measuring	-10431
HL	-10432
forward	-10433
▁Ireland	-10434
▁teachers	-10435
second	-10436
▁falling	-10437
▁interior	-10438
▁tea	-10439
ocyte	-10440
▁attribute	-10441
▁galaxies	-10442
▁bytes	-10443
SION	-10444
▁intake	-10445
▁250	-10446
▁bench	-10447
aux	-10448
Pi	-10449
rients	-10450
▁],	-10451
▁discipl	-10452
nament	-10453
▁Rog	-10454
▁Patients	-10455
▁scientists	-10456
▁handling	-10457
ocard	-10458
▁controlling	-10459
▁HTML	-10460
ovascular	-10461
▁roof	-10462
▁abnormal	-10463
▁-13	-10464
mathscr	-10465
▁Was	-10466
▁ч	-10467
REE	-10468
FD	-10469
▁21,	-10470
▁Discussion	-10471
2.5	-10472
Ge	-10473
▁marks	-10474
monary	-10475
▁Space	-10476
▁responded	-10477
ubb	-10478
-03	-10479
▁whis	-10480
olars	-10481
▁atmosphere	-10482
▁Having	-10483
▁lattice	-10484
да	-10485
Exp	-10486
▁Rh	-10487
ami	-10488
▁cable	-10489
description	-10490
acity	-10491
▁inhibitor	-10492
▁energ	-10493
Ind	-10494
▁Father	-10495
inois	-10496
▁tough	-10497
▁hide	-10498
inv	-10499
:3	-10500
▁Study	-10501
▁drinking	-10502
▁-9	-10503
xp	-10504
▁refers	-10505
▁magnet	-10506
),\	-10507
Options	-10508
▁struck	-10509
inking	-10510
▁Third	-10511
▁legislation	-10512
***	-10513
▁soci	-10514
▁returning	-10515
▁adjusted	-10516
▁Value	-10517
▁dialog	-10518
▁nodded	-10519
:1	-10520
formed	-10521
gage	-10522
▁communications	-10523
▁DR	-10524
▁lights	-10525
lot	-10526
▁silence	-10527
amination	-10528
Instance	-10529
▁Family	-10530
▁comprom	-10531
▁craft	-10532
6).	-10533
▁discrimination	-10534
▁diagram	-10535
▁uncon	-10536
▁coinc	-10537
town	-10538
▁Sat	-10539
▁rejected	-10540
▁organized	-10541
bas	-10542
iratory	-10543
▁covers	-10544
izz	-10545
▁riv	-10546
ochemical	-10547
▁comparing	-10548
fix	-10549
▁reward	-10550
▁agencies	-10551
▁settlement	-10552
)$$	-10553
▁Lew	-10554
▁banks	-10555
bottom	-10556
▁reaching	-10557
▁Lett	-10558
▁**(	-10559
▁Comm	-10560
▁AF	-10561
▁(15	-10562
alloc	-10563
▁Pop	-10564
,0	-10565
▁constraints	-10566
','	-10567
ARD	-10568
▁arranged	-10569
▁Publ	-10570
▁decreasing	-10571
▁Mir	-10572
Ste	-10573
pu	-10574
▁metabolism	-10575
▁covering	-10576
▁yields	-10577
▁Ken	-10578
▁Pen	-10579
▁FL	-10580
▁doct	-10581
}({\	-10582
▁```	-10583
▁restricted	-10584
▁employer	-10585
Ms	-10586
▁51	-10587
▁ml	-10588
▁22,	-10589
▁cited	-10590
offset	-10591
pie	-10592
▁independently	-10593
▁cust	-10594
▁variance	-10595
▁captured	-10596
▁academic	-10597
▁EL	-10598
cule	-10599
Are	-10600
some	-10601
▁Defendants	-10602
Control	-10603
Cur	-10604
▁joy	-10605
▁Lim	-10606
pool	-10607
▁не	-10608
osity	-10609
1>	-10610
filter	-10611
▁southern	-10612
▁nerve	-10613
▁beer	-10614
▁magic	-10615
onymous	-10616
ilibrium	-10617
▁Gall	-10618
▁Application	-10619
}.$$	-10620
_1)	-10621
▁Der	-10622
bus	-10623
metric	-10624
2(	-10625
stic	-10626
▁Nevertheless	-10627
▁_,	-10628
▁privacy	-10629
▁excit	-10630
▁stations	-10631
infl	-10632
ATH	-10633
▁4-	-10634
▁comprehensive	-10635
▁prospect	-10636
▁OK	-10637
▁insu	-10638
▁folder	-10639
▁̄	-10640
▁Ast	-10641
▁notion	-10642
▁giant	-10643
mal	-10644
▁AB	-10645
▁cream	-10646
▁(12	-10647
▁gauge	-10648
▁Resp	-10649
▁lob	-10650
▁voters	-10651
idad	-10652
▁serves	-10653
▁enabled	-10654
-----------	-10655
aska	-10656
earing	-10657
▁Library	-10658
including	-10659
▁span	-10660
▁plurality	-10661
▁Additional	-10662
▁CC	-10663
▁Sort	-10664
▁aux	-10665
▁MR	-10666
▁chip	-10667
008	-10668
Phone	-10669
▁Little	-10670
▁![](	-10671
▁rising	-10672
▁appointed	-10673
▁tank	-10674
▁edition	-10675
)]	-10676
▁Opt	-10677
Back	-10678
▁creative	-10679
▁δ	-10680
quar	-10681
types	-10682
▁Create	-10683
▁legit	-10684
▁Global	-10685
▁cultures	-10686
▁incorporated	-10687
inition	-10688
iations	-10689
▁Michigan	-10690
▁Product	-10691
TD	-10692
▁liber	-10693
▁okay	-10694
angers	-10695
▁Management	-10696
▁updates	-10697
▁cache	-10698
▁modification	-10699
4\	-10700
▁decom	-10701
ylvania	-10702
atre	-10703
▁herein	-10704
▁Sn	-10705
▁Ah	-10706
▁doors	-10707
▁mere	-10708
▁atoms	-10709
^[	-10710
onto	-10711
0"	-10712
▁2001	-10713
▁wavelength	-10714
▁explicitly	-10715
world	-10716
uality	-10717
▁appell	-10718
▁behalf	-10719
anna	-10720
-04	-10721
▁struggle	-10722
rin	-10723
▁Sometimes	-10724
ordan	-10725
▁Econom	-10726
▁Phot	-10727
▁Corporation	-10728
VID	-10729
▁improving	-10730
-11-	-10731
▁thorough	-10732
▁shr	-10733
▁tren	-10734
▁mistake	-10735
▁allegations	-10736
▁Bush	-10737
pay	-10738
▁inher	-10739
▁3](#	-10740
wart	-10741
▁Artic	-10742
cludes	-10743
▁aimed	-10744
▁stuck	-10745
=1}^	-10746
2>	-10747
----------	-10748
elve	-10749
▁Adv	-10750
▁diverse	-10751
=1,	-10752
▁disappoint	-10753
untime	-10754
ustration	-10755
Listener	-10756
▁(-2	-10757
▁Championship	-10758
▁Spain	-10759
}^\	-10760
connect	-10761
▁pron	-10762
▁Steve	-10763
oprote	-10764
▁Museum	-10765
istical	-10766
▁imposed	-10767
▁Pot	-10768
▁vascular	-10769
close	-10770
bell	-10771
ORE	-10772
▁Array	-10773
▁Award	-10774
irms	-10775
▁matching	-10776
ques	-10777
^2$	-10778
▁119	-10779
▁<=	-10780
oi	-10781
▁Miller	-10782
▁mild	-10783
olly	-10784
aland	-10785
▁192	-10786
gressive	-10787
▁approximation	-10788
▁injured	-10789
▁wireless	-10790
▁challenging	-10791
bits	-10792
▁universal	-10793
sur	-10794
NR	-10795
▁***	-10796
▁sel	-10797
before	-10798
▁Energy	-10799
▁mountain	-10800
▁statutory	-10801
+01	-10802
ны	-10803
▁Emp	-10804
▁resolve	-10805
\*\*	-10806
▁Plaintiffs	-10807
ifi	-10808
▁orientation	-10809
▁fewer	-10810
▁76	-10811
▁sevent	-10812
AK	-10813
.]	-10814
▁$5	-10815
▁denomin	-10816
▁algorithms	-10817
rained	-10818
▁northern	-10819
▁Sus	-10820
ttp	-10821
Spec	-10822
▁Patent	-10823
empty	-10824
▁23,	-10825
▁stom	-10826
acts	-10827
▁MP	-10828
▁Cook	-10829
▁transplant	-10830
▁OP	-10831
▁smiled	-10832
ARY	-10833
ioned	-10834
▁explos	-10835
olester	-10836
▁NC	-10837
unctions	-10838
aire	-10839
▁lying	-10840
▁deviation	-10841
▁adds	-10842
▁74	-10843
8_	-10844
▁frequencies	-10845
system	-10846
acking	-10847
▁branc	-10848
▁0.6	-10849
Right	-10850
inating	-10851
▁meta	-10852
People	-10853
aws	-10854
mut	-10855
Select	-10856
5]	-10857
iry	-10858
).$$	-10859
idal	-10860
▁engineering	-10861
▁Meanwhile	-10862
RNAs	-10863
▁cha	-10864
Length	-10865
points	-10866
^0	-10867
}}}}	-10868
orses	-10869
▁Cre	-10870
▁reduces	-10871
mediated	-10872
▁suffer	-10873
▁vertex	-10874
▁swim	-10875
▁cheap	-10876
▁closing	-10877
jpg	-10878
3;	-10879
▁trav	-10880
float	-10881
▁Base	-10882
aver	-10883
800	-10884
usr	-10885
ки	-10886
eman	-10887
gener	-10888
0.01	-10889
child	-10890
▁mL	-10891
uits	-10892
▁educational	-10893
▁Bell	-10894
▁signature	-10895
Column	-10896
▁SQL	-10897
▁tape	-10898
Supplementary	-10899
▁consumers	-10900
▁temporary	-10901
▁Standard	-10902
▁Wis	-10903
▁agric	-10904
▁Contin	-10905
▁consisting	-10906
opath	-10907
▁movements	-10908
▁Palest	-10909
▁Mid	-10910
hetic	-10911
!'	-10912
▁tracks	-10913
▁packages	-10914
▁executed	-10915
rose	-10916
Resource	-10917
▁Different	-10918
▁neural	-10919
▁Hig	-10920
▁Express	-10921
▁substit	-10922
▁telephone	-10923
▁progn	-10924
▁inclusion	-10925
▁pocket	-10926
▁hospit	-10927
employ	-10928
vm	-10929
estinal	-10930
▁vectors	-10931
▁diagnosed	-10932
▁vessel	-10933
▁"""	-10934
▁advantages	-10935
▁≥	-10936
▁Studies	-10937
ijer	-10938
▁-14	-10939
EV	-10940
service	-10941
▁Da	-10942
vector	-10943
_1(	-10944
▁elsewhere	-10945
▁produces	-10946
reement	-10947
▁reflected	-10948
associ	-10949
▁birds	-10950
▁Head	-10951
▁&=&	-10952
▁duplic	-10953
▁generating	-10954
▁basket	-10955
anim	-10956
1.5	-10957
upid	-10958
▁Ce	-10959
▁($\	-10960
Max	-10961
▁Illinois	-10962
||	-10963
▁pharmac	-10964
▁Eval	-10965
▁intrac	-10966
▁Prior	-10967
iar	-10968
)+	-10969
irk	-10970
▁Northern	-10971
▁Jews	-10972
▁Uk	-10973
7/	-10974
▁desirable	-10975
▁dominant	-10976
4/	-10977
▁gut	-10978
▁singular	-10979
▁loud	-10980
▁Rub	-10981
▁anymore	-10982
wr	-10983
▁Quant	-10984
Row	-10985
sylvania	-10986
▁destroyed	-10987
msg	-10988
▁strings	-10989
▁cum	-10990
'),	-10991
>0	-10992
ensor	-10993
▁apt	-10994
▁permitted	-10995
▁continuing	-10996
▁unre	-10997
▁printed	-10998
ologically	-10999
▁settled	-11000
oric	-11001
▁Aud	-11002
ibration	-11003
▁Scient	-11004
▁arrangement	-11005
▁infrastructure	-11006
▁roughly	-11007
▁priority	-11008
▁holes	-11009
▁smoke	-11010
ificial	-11011
▁manual	-11012
▁00:	-11013
abeth	-11014
GG	-11015
▁heavily	-11016
▁engage	-11017
▁resolved	-11018
▁Tri	-11019
▁dismissed	-11020
▁Action	-11021
ctx	-11022
▁Hun	-11023
▁admission	-11024
anny	-11025
plus	-11026
▁lips	-11027
response	-11028
▁yesterday	-11029
▁-0.0	-11030
▁diver	-11031
▁constantly	-11032
urd	-11033
}+\	-11034
▁participation	-11035
bial	-11036
▁shook	-11037
▁roots	-11038
etch	-11039
▁Pay	-11040
cb	-11041
vs	-11042
names	-11043
▁overcome	-11044
cycl	-11045
Block	-11046
▁pitch	-11047
▁Foot	-11048
NP	-11049
NET	-11050
!”	-11051
Check	-11052
Go	-11053
ени	-11054
Tex	-11055
▁horizontal	-11056
▁impair	-11057
▁buying	-11058
▁barrier	-11059
sys	-11060
Factory	-11061
>>	-11062
▁teen	-11063
holder	-11064
eties	-11065
▁WARRANT	-11066
▁profit	-11067
########	-11068
▁mirror	-11069
ogenous	-11070
3_	-11071
gle	-11072
▁fluorescence	-11073
▁1999	-11074
▁conve	-11075
▁conservative	-11076
▁2002	-11077
▁pleasure	-11078
oli	-11079
▁divisor	-11080
▁intervals	-11081
▁faced	-11082
blog	-11083
&#	-11084
▁Exec	-11085
▁coordinates	-11086
Token	-11087
▁::	-11088
amps	-11089
▁founded	-11090
▁Related	-11091
install	-11092
prod	-11093
▁petitioner	-11094
ictions	-11095
issions	-11096
▁voc	-11097
▁converted	-11098
▁keeps	-11099
}_\	-11100
▁Cas	-11101
▁proven	-11102
▁fired	-11103
)^	-11104
cus	-11105
▁oh	-11106
▁confront	-11107
▁lady	-11108
▁receiver	-11109
opp	-11110
▁lawyer	-11111
dest	-11112
access	-11113
▁GR	-11114
▁opinions	-11115
▁yards	-11116
Mon	-11117
▁Academy	-11118
rosis	-11119
push	-11120
SET	-11121
▁hang	-11122
▁enjoyed	-11123
EF	-11124
1%	-11125
▁interrupt	-11126
▁spokes	-11127
▁ell	-11128
:4	-11129
▁Early	-11130
▁inline	-11131
▁79	-11132
▁Queen	-11133
▁decor	-11134
▁chicken	-11135
IME	-11136
▁listening	-11137
▁innoc	-11138
endix	-11139
emic	-11140
▁98	-11141
▁scheduled	-11142
▁Kingdom	-11143
▁friendly	-11144
▁dance	-11145
▁tu	-11146
▁magazine	-11147
▁scattering	-11148
fin	-11149
▁++	-11150
oving	-11151
▁explains	-11152
ENSE	-11153
▁LA	-11154
▁Ubuntu	-11155
??	-11156
▁provider	-11157
1$	-11158
▁tunn	-11159
▁writers	-11160
▁convenient	-11161
▁tack	-11162
▁personnel	-11163
olve	-11164
▁schem	-11165
ité	-11166
aceut	-11167
▁codes	-11168
ishop	-11169
ECK	-11170
plan	-11171
▁unusual	-11172
▁scales	-11173
▁Saint	-11174
PAR	-11175
Eng	-11176
={	-11177
▁ou	-11178
neum	-11179
▁за	-11180
▁('	-11181
oned	-11182
▁languages	-11183
opes	-11184
▁retire	-11185
▁silent	-11186
dig	-11187
imp	-11188
▁28,	-11189
▁Lear	-11190
▁comprising	-11191
▁{}	-11192
▁newspaper	-11193
▁nervous	-11194
▁Community	-11195
▁portions	-11196
site	-11197
▁elder	-11198
Str	-11199
enda	-11200
▁Pacific	-11201
▁unlikely	-11202
imental	-11203
▁powder	-11204
▁+\	-11205
adel	-11206
WR	-11207
mean	-11208
▁2020	-11209
▁upt	-11210
▁Pennsylvania	-11211
▁Direct	-11212
▁Asian	-11213
Label	-11214
▁movies	-11215
▁viewed	-11216
160	-11217
True	-11218
▁Lind	-11219
▁shout	-11220
▁onset	-11221
▁analyt	-11222
ер	-11223
▁preserv	-11224
▁rural	-11225
▁bounded	-11226
pres	-11227
▁screw	-11228
▁hasn	-11229
'\	-11230
▁Cu	-11231
▁Dam	-11232
▁visited	-11233
▁disturb	-11234
▁butt	-11235
sn	-11236
▁Ga	-11237
▁LD	-11238
▁Proposition	-11239
▁improvements	-11240
▁Full	-11241
▁accompanied	-11242
bot	-11243
Open	-11244
yo	-11245
▁Republicans	-11246
▁115	-11247
Write	-11248
▁fel	-11249
▁inequality	-11250
IAL	-11251
▁manufacturer	-11252
▁losses	-11253
▁(2.	-11254
worth	-11255
Su	-11256
ibraries	-11257
▁conclusions	-11258
hav	-11259
▁Harry	-11260
▁Gi	-11261
▁lipid	-11262
orous	-11263
▁paras	-11264
▁CEO	-11265
▁cycles	-11266
▁kinase	-11267
▁(-1	-11268
▁colleagues	-11269
ijerph	-11270
gas	-11271
Link	-11272
update	-11273
▁$[	-11274
▁irre	-11275
—"	-11276
▁spons	-11277
pered	-11278
▁Matt	-11279
▁84	-11280
ét	-11281
▁cock	-11282
clip	-11283
▁indirect	-11284
otation	-11285
▁calcium	-11286
▁availability	-11287
▁peptide	-11288
▁Eastern	-11289
▁utility	-11290
conduct	-11291
▁personally	-11292
▁hoping	-11293
ounced	-11294
▁believes	-11295
+2	-11296
whel	-11297
▁recru	-11298
Let	-11299
▁Soviet	-11300
▁timing	-11301
▁failing	-11302
uid	-11303
icht	-11304
▁uncertainty	-11305
▁inhibitors	-11306
▁household	-11307
▁Ros	-11308
▁kil	-11309
ATED	-11310
▁synchron	-11311
▁Tour	-11312
▁ignore	-11313
▁jet	-11314
▁interference	-11315
▁lunch	-11316
▁fool	-11317
ogl	-11318
▁attended	-11319
▁Tenn	-11320
▁compute	-11321
18.	-11322
▁gray	-11323
Gl	-11324
▁Son	-11325
▁2.2	-11326
▁scored	-11327
▁Process	-11328
▁invasion	-11329
▁sees	-11330
▁fur	-11331
▁è	-11332
▁printing	-11333
Style	-11334
▁Bru	-11335
▁modul	-11336
▁operated	-11337
▁admit	-11338
▁verdict	-11339
-05	-11340
Hel	-11341
▁awarded	-11342
▁worldwide	-11343
Rem	-11344
owa	-11345
ле	-11346
▁Eliz	-11347
▁falls	-11348
▁Georgia	-11349
▁thinks	-11350
▁mathemat	-11351
▁crazy	-11352
▁turb	-11353
stra	-11354
▁STAT	-11355
▁resemb	-11356
uri	-11357
▁partnership	-11358
▁pilot	-11359
1~	-11360
▁inspired	-11361
etr	-11362
▁Week	-11363
iley	-11364
▁regularly	-11365
▁beneath	-11366
▁revenue	-11367
▁rarely	-11368
ει	-11369
adi	-11370
▁Tal	-11371
▁quantitative	-11372
▁\;	-11373
▁phenomenon	-11374
▁FI	-11375
▁Mas	-11376
▁Prime	-11377
▁upload	-11378
▁112	-11379
▁ik	-11380
gun	-11381
▁deeply	-11382
▁Mother	-11383
▁removing	-11384
week	-11385
▁childhood	-11386
▁gradient	-11387
Width	-11388
▁professor	-11389
▁proceeding	-11390
Part	-11391
▁reasonably	-11392
▁separately	-11393
▁18.	-11394
▁combat	-11395
▁Cond	-11396
hard	-11397
▁meal	-11398
▁rh	-11399
▁euro	-11400
/8	-11401
▁studio	-11402
kit	-11403
▁paths	-11404
yal	-11405
▁exclusive	-11406
MAX	-11407
▁Irish	-11408
▁ко	-11409
icing	-11410
advant	-11411
▁97	-11412
sv	-11413
▁caption	-11414
▁entering	-11415
▁appreciate	-11416
amic	-11417
(3)	-11418
▁cig	-11419
▁az	-11420
▁fi	-11421
-$	-11422
▁Jersey	-11423
istence	-11424
▁processed	-11425
aya	-11426
▁Sea	-11427
▁concrete	-11428
▁م	-11429
▁witnesses	-11430
▁Gene	-11431
ologists	-11432
fire	-11433
▁Compar	-11434
dagger	-11435
▁26,	-11436
lev	-11437
appy	-11438
▁angular	-11439
Click	-11440
▁2.5	-11441
person	-11442
▁foods	-11443
17.	-11444
▁dish	-11445
ariate	-11446
`,	-11447
white	-11448
▁+/-	-11449
▁expanded	-11450
▁sodium	-11451
dra	-11452
▁nose	-11453
▁submit	-11454
hang	-11455
▁temporal	-11456
▁Polit	-11457
uated	-11458
}}$.	-11459
]{}]{}	-11460
don	-11461
▁Series	-11462
Param	-11463
▁contends	-11464
▁steady	-11465
ILITY	-11466
▁bowl	-11467
Builder	-11468
▁maintaining	-11469
▁byte	-11470
▁designs	-11471
▁healthcare	-11472
▁Ly	-11473
003	-11474
/12	-11475
-------------	-11476
▁swit	-11477
▁everywhere	-11478
▁UV	-11479
▁patch	-11480
▁modules	-11481
▁Typ	-11482
▁demands	-11483
blue	-11484
▁clim	-11485
▁locally	-11486
<\	-11487
etics	-11488
hu	-11489
▁GNU	-11490
herence	-11491
▁Cost	-11492
master	-11493
▁Short	-11494
adium	-11495
▁Factor	-11496
$$\	-11497
{(	-11498
▁conspir	-11499
arser	-11500
▁-15	-11501
▁competing	-11502
▁geometry	-11503
▁Children	-11504
▁doctors	-11505
▁resist	-11506
▁completion	-11507
vironments	-11508
▁pixel	-11509
=1}^{	-11510
▁73	-11511
anz	-11512
oves	-11513
110	-11514
abe	-11515
itudes	-11516
ometer	-11517
▁municip	-11518
cies	-11519
▁maxim	-11520
Phys	-11521
urity	-11522
▁accumulation	-11523
▁batt	-11524
.),	-11525
▁Fair	-11526
oplus	-11527
▁providers	-11528
urable	-11529
▁coat	-11530
▁varying	-11531
bral	-11532
▁Jun	-11533
^−1^	-11534
Attribute	-11535
bet	-11536
gov	-11537
▁Ford	-11538
▁filing	-11539
▁encourage	-11540
19,	-11541
▁Cru	-11542
Pointer	-11543
awa	-11544
▁cord	-11545
▁ul	-11546
oped	-11547
▁trading	-11548
▁affects	-11549
▁awareness	-11550
isen	-11551
▁masses	-11552
▁dispute	-11553
pn	-11554
▁rum	-11555
▁invalid	-11556
./	-11557
▁Zealand	-11558
▁similarly	-11559
▁hepat	-11560
▁86	-11561
ulty	-11562
▁edit	-11563
▁BL	-11564
▁dial	-11565
wall	-11566
▁21.	-11567
▁decreases	-11568
256	-11569
▁ages	-11570
11.	-11571
▁1970	-11572
▁SA	-11573
▁Mah	-11574
▁haz	-11575
Theta	-11576
API	-11577
▁31,	-11578
agan	-11579
▁Lady	-11580
▁27,	-11581
▁anch	-11582
▁precision	-11583
▁oxide	-11584
such	-11585
▁administered	-11586
Vis	-11587
▁87	-11588
▁2012,	-11589
▁antigen	-11590
▁commitment	-11591
▁satell	-11592
▁altered	-11593
▁extraction	-11594
sex	-11595
break	-11596
▁forum	-11597
▁vice	-11598
ryst	-11599
:5	-11600
▁sir	-11601
Build	-11602
▁stayed	-11603
▁Edward	-11604
*~*	-11605
▁eggs	-11606
IVE	-11607
▁entries	-11608
Cal	-11609
▁severity	-11610
▁lateral	-11611
BE	-11612
▁supplied	-11613
_0,	-11614
emed	-11615
internal	-11616
▁Brook	-11617
▁vacuum	-11618
▁searching	-11619
▁fusion	-11620
▁Mit	-11621
▁underw	-11622
▁perturb	-11623
▁Access	-11624
▁Linux	-11625
▁competitive	-11626
refix	-11627
▁Boy	-11628
▁1998	-11629
osomes	-11630
▁prelim	-11631
▁physics	-11632
▁stepped	-11633
▁degradation	-11634
▁reply	-11635
jections	-11636
PG	-11637
copy	-11638
black	-11639
▁Map	-11640
▁gained	-11641
▁Policy	-11642
UST	-11643
sto	-11644
▁Hug	-11645
▁bless	-11646
▁absent	-11647
outer	-11648
▁Minn	-11649
▁parad	-11650
Det	-11651
▁theories	-11652
underline	-11653
]{}\	-11654
menu	-11655
▁terrible	-11656
▁Ryan	-11657
▁Represent	-11658
▁dipl	-11659
▁musical	-11660
▁Cat	-11661
]);	-11662
Oper	-11663
▁guns	-11664
▁likelihood	-11665
▁infinite	-11666
ghan	-11667
▁94	-11668
}}$,	-11669
▁prominent	-11670
)}{	-11671
▁SW	-11672
▁denominator	-11673
▁WT	-11674
illance	-11675
▁ships	-11676
ONE	-11677
Mem	-11678
▁advertising	-11679
▁restriction	-11680
Component	-11681
▁rice	-11682
▁113	-11683
▁Adam	-11684
▁athlet	-11685
▁sli	-11686
subseteq	-11687
▁ease	-11688
▁expenses	-11689
esity	-11690
▁Rose	-11691
▁Centre	-11692
▁lect	-11693
▁Altern	-11694
▁acquisition	-11695
▁ratios	-11696
▁89	-11697
▁boolean	-11698
▁automatic	-11699
▁centers	-11700
▁incl	-11701
▁Word	-11702
{1}{\	-11703
▁medi	-11704
▁Indust	-11705
▁Bra	-11706
▁Jean	-11707
▁variants	-11708
Init	-11709
▁systematic	-11710
▁Expand	-11711
▁comprises	-11712
▁Ltd	-11713
▁mais	-11714
▁(0,	-11715
olesterol	-11716
▁determin	-11717
VM	-11718
▁wake	-11719
▁regarded	-11720
▁Santa	-11721
▁affili	-11722
▁layout	-11723
▁writes	-11724
▁ly	-11725
▁180	-11726
▁beach	-11727
*^	-11728
▁ink	-11729
▁embr	-11730
▁washed	-11731
ika	-11732
▁qualified	-11733
▁generic	-11734
▁expressions	-11735
▁130	-11736
▁Ho	-11737
▁dens	-11738
▁Kit	-11739
Output	-11740
▁Ent	-11741
▁Eric	-11742
▁beside	-11743
▁abundance	-11744
▁metall	-11745
▁flexible	-11746
]{.	-11747
▁developers	-11748
▁AG	-11749
materials	-11750
kind	-11751
▁discussions	-11752
▁respiratory	-11753
insic	-11754
▁destination	-11755
▁subjected	-11756
▁terr	-11757
▁limitation	-11758
Gener	-11759
▁reject	-11760
▁Captain	-11761
craft	-11762
green	-11763
▁parking	-11764
Pa	-11765
(3	-11766
▁annot	-11767
▁Kar	-11768
▁pointer	-11769
▁enum	-11770
acon	-11771
onical	-11772
▁checks	-11773
▁recon	-11774
Sm	-11775
VC	-11776
▁Guard	-11777
acet	-11778
▁Doug	-11779
▁surge	-11780
▁perceived	-11781
▁elections	-11782
▁analyze	-11783
(-1	-11784
2),	-11785
▁carb	-11786
▁influenced	-11787
▁(16	-11788
▁insight	-11789
vider	-11790
▁attributes	-11791
▁distinguish	-11792
▁UI	-11793
▁у	-11794
\}$	-11795
dl	-11796
ικ	-11797
▁shorter	-11798
▁yeah	-11799
▁pi	-11800
▁marg	-11801
▁Fif	-11802
First	-11803
▁penalty	-11804
▁protective	-11805
▁malign	-11806
bow	-11807
aussian	-11808
▁forever	-11809
▁<?	-11810
▁interventions	-11811
--------------	-11812
▁harvest	-11813
hot	-11814
▁artery	-11815
▁(%)	-11816
Configuration	-11817
▁Brad	-11818
▁deleg	-11819
▁cooling	-11820
▁Python	-11821
▁CM	-11822
▁flour	-11823
viously	-11824
eries	-11825
omorphism	-11826
▁Later	-11827
▁aden	-11828
mg	-11829
ushing	-11830
Cell	-11831
}}}\	-11832
▁passes	-11833
▁crimes	-11834
▁Latin	-11835
DI	-11836
mac	-11837
▁coding	-11838
Pol	-11839
▁Nick	-11840
▁troub	-11841
▁Nothing	-11842
να	-11843
▁î	-11844
▁projection	-11845
▁(@	-11846
▁trail	-11847
▁Officer	-11848
Dev	-11849
▁angry	-11850
▁heating	-11851
▁survive	-11852
ropic	-11853
aired	-11854
▁exhibited	-11855
anti	-11856
▁vital	-11857
▁judicial	-11858
▁installation	-11859
▁stupid	-11860
▁$.	-11861
▁(5)	-11862
Thread	-11863
▁sustained	-11864
▁mixing	-11865
▁Mill	-11866
bes	-11867
▁asympt	-11868
▁foundation	-11869
▁<-	-11870
▁MT	-11871
▁insufficient	-11872
&=	-11873
▁drew	-11874
▁args	-11875
▁tong	-11876
▁ip	-11877
Const	-11878
95%	-11879
▁=\	-11880
▁harder	-11881
changed	-11882
raine	-11883
▁Prince	-11884
▁appeals	-11885
iotic	-11886
▁22.	-11887
▁29,	-11888
wedge	-11889
there	-11890
▁knee	-11891
▁prevention	-11892
▁Hay	-11893
▁medication	-11894
▁Nic	-11895
="../../	-11896
STAT	-11897
▁Term	-11898
▁pipe	-11899
▁2013,	-11900
ACT	-11901
▁sequencing	-11902
**.	-11903
▁overwhel	-11904
▁meetings	-11905
▁gay	-11906
ICENSE	-11907
aki	-11908
yers	-11909
through	-11910
▁dont	-11911
Window	-11912
▁guarantee	-11913
▁Cambridge	-11914
▁$4	-11915
utter	-11916
▁professionals	-11917
aza	-11918
▁Index	-11919
▁2014,	-11920
▁Rights	-11921
▁readily	-11922
▁bottle	-11923
▁accessible	-11924
regulation	-11925
▁}}	-11926
▁Univers	-11927
overs	-11928
▁addresses	-11929
oline	-11930
▁deposition	-11931
▁cow	-11932
▁tips	-11933
▁Ash	-11934
tan	-11935
009	-11936
▁bearing	-11937
▁dates	-11938
nan	-11939
ucky	-11940
}}}$	-11941
▁Cho	-11942
▁persu	-11943
▁disability	-11944
▁ending	-11945
▁sessions	-11946
thread	-11947
▁acceptable	-11948
▁Ten	-11949
▁Professor	-11950
▁ub	-11951
parse	-11952
▁randomly	-11953
}}(\	-11954
▁desper	-11955
▁cuts	-11956
▁residues	-11957
nie	-11958
▁unlike	-11959
report	-11960
▁Watch	-11961
▁Kent	-11962
May	-11963
▁violent	-11964
▁buck	-11965
rb	-11966
▁diffusion	-11967
▁recovered	-11968
textrm	-11969
▁flying	-11970
▁satisfies	-11971
▁db	-11972
files	-11973
▁Rome	-11974
▁disadvant	-11975
▁volunt	-11976
▁Dat	-11977
remove	-11978
150	-11979
▁gear	-11980
store	-11981
▁Hope	-11982
▁unexpected	-11983
▁alignment	-11984
▁Viet	-11985
fi	-11986
▁computing	-11987
▁190	-11988
▁wondering	-11989
▁feeding	-11990
commun	-11991
▁Conference	-11992
aser	-11993
▁Overall	-11994
▁Should	-11995
Now	-11996
002	-11997
AMP	-11998
pot	-11999
▁pm	-12000
▁concepts	-12001
drop	-12002
will	-12003
grav	-12004
▁Place	-12005
▁Stephen	-12006
▁SYS	-12007
0.2	-12008
▁resonance	-12009
▁checking	-12010
▁nit	-12011
*]{},	-12012
▁Games	-12013
angular	-12014
shot	-12015
▁phases	-12016
▁moon	-12017
▁targeting	-12018
keys	-12019
backs	-12020
achine	-12021
▁EDIT	-12022
▁bunch	-12023
▁83	-12024
▁tomorrow	-12025
linux	-12026
uj	-12027
▁paragraph	-12028
▁talks	-12029
▁ranging	-12030
fusion	-12031
▁kidney	-12032
example	-12033
▁spiritual	-12034
▁DIS	-12035
▁114	-12036
▁Bul	-12037
▁slic	-12038
pton	-12039
▁seasons	-12040
▁guest	-12041
▁\#	-12042
▁9*	-12043
▁Thom	-12044
template	-12045
▁immunity	-12046
004){	-12047
▁Az	-12048
^2}	-12049
▁SS	-12050
▁constitute	-12051
necess	-12052
foo	-12053
▁studying	-12054
▁tied	-12055
agram	-12056
▁verify	-12057
▁facilitate	-12058
▁CP	-12059
▁padding	-12060
▁Consequently	-12061
complete	-12062
odynam	-12063
▁cooking	-12064
▁LI	-12065
▁panels	-12066
▁macroph	-12067
REG	-12068
▁psychological	-12069
▁ingredients	-12070
▁hint	-12071
▁throws	-12072
]]	-12073
▁mari	-12074
▁everybody	-12075
▁Anton	-12076
%).	-12077
▁contracts	-12078
▁tension	-12079
▁Hz	-12080
▁residual	-12081
phy	-12082
6*	-12083
▁refuge	-12084
▁presidential	-12085
inch	-12086
▁Function	-12087
▁Path	-12088
inth	-12089
▁Server	-12090
atile	-12091
▁molecule	-12092
▁intellectual	-12093
▁promising	-12094
Command	-12095
▁Petition	-12096
apor	-12097
▁calm	-12098
▁nutrition	-12099
▁Kat	-12100
Target	-12101
▁council	-12102
▁Cro	-12103
Ptr	-12104
▁Prim	-12105
▁consecutive	-12106
▁Within	-12107
▁environments	-12108
▁2/	-12109
▁1997	-12110
heast	-12111
▁recruit	-12112
▁identifying	-12113
▁bid	-12114
arios	-12115
eras	-12116
.$	-12117
attered	-12118
▁effectiveness	-12119
▁Night	-12120
▁contest	-12121
▁Hi	-12122
five	-12123
▁displays	-12124
tri	-12125
uations	-12126
▁normalized	-12127
▁posterior	-12128
▁nicht	-12129
estyle	-12130
Min	-12131
door	-12132
▁Hal	-12133
▁attitude	-12134
▁cleaning	-12135
naire	-12136
oni	-12137
juana	-12138
▁tow	-12139
fish	-12140
▁nations	-12141
``	-12142
▁barely	-12143
ouston	-12144
▁(14	-12145
Function	-12146
▁featured	-12147
▁enorm	-12148
▁tang	-12149
▁utilized	-12150
orable	-12151
▁Pakistan	-12152
▁exciting	-12153
▁expectations	-12154
equal	-12155
Ret	-12156
▁2015,	-12157
▁occurrence	-12158
▁tears	-12159
▁"$	-12160
▁enzymes	-12161
▁armed	-12162
gered	-12163
▁assays	-12164
▁rod	-12165
sters	-12166
archy	-12167
▁dear	-12168
etts	-12169
▁assignment	-12170
▁neu	-12171
Activity	-12172
▁).	-12173
▁Lewis	-12174
▁tracking	-12175
▁symp	-12176
ettings	-12177
▁tired	-12178
▁delight	-12179
▁relating	-12180
4~	-12181
▁recommendations	-12182
▁CPU	-12183
ergic	-12184
▁lumin	-12185
▁arc	-12186
▁reputation	-12187
▁RA	-12188
▁deliber	-12189
▁horses	-12190
▁-------------	-12191
location	-12192
▁drove	-12193
zona	-12194
▁Anderson	-12195
▁switching	-12196
Arg	-12197
▁shield	-12198
func	-12199
_5	-12200
>&	-12201
ographer	-12202
▁solely	-12203
▁earned	-12204
▁connecting	-12205
▁decent	-12206
▁cheese	-12207
▁EN	-12208
▁actor	-12209
▁investors	-12210
▁2010,	-12211
▁incons	-12212
▁fu	-12213
Util	-12214
Equal	-12215
otide	-12216
▁epidem	-12217
▁defects	-12218
SIZE	-12219
▁Know	-12220
▁climb	-12221
uty	-12222
▁ultimate	-12223
bury	-12224
▁debug	-12225
▁folks	-12226
▁asks	-12227
obic	-12228
▁invited	-12229
▁pill	-12230
▁sie	-12231
cler	-12232
activity	-12233
▁override	-12234
▁worried	-12235
▁bull	-12236
ETH	-12237
▁muc	-12238
negative	-12239
▁''	-12240
req	-12241
▁predomin	-12242
hist	-12243
▁Sav	-12244
▁grate	-12245
▁Alexander	-12246
▁philosophy	-12247
ynamic	-12248
)),	-12249
▁therap	-12250
ifting	-12251
icle	-12252
▁propose	-12253
▁Specifically	-12254
▁puts	-12255
ät	-12256
▁Prom	-12257
▁Search	-12258
▁Elizabeth	-12259
▁reporter	-12260
▁25.	-12261
bold	-12262
▁shopping	-12263
-07	-12264
▁Has	-12265
redit	-12266
▁202	-12267
▁associations	-12268
▁mood	-12269
▁duties	-12270
env	-12271
gel	-12272
▁preliminary	-12273
▁implications	-12274
4_	-12275
▁validation	-12276
▁Ven	-12277
▁promised	-12278
▁embedded	-12279
▁NAS	-12280
late	-12281
▁BC	-12282
▁$10	-12283
▁Had	-12284
ulative	-12285
0.1	-12286
▁phrase	-12287
▁Syria	-12288
hop	-12289
▁Statistical	-12290
making	-12291
FLAG	-12292
orse	-12293
▁Wild	-12294
▁convey	-12295
▁embar	-12296
_2\	-12297
▁-------	-12298
▁plea	-12299
▁24.	-12300
-09-00	-12301
▁guitar	-12302
public	-12303
▁(13	-12304
▁BR	-12305
ici	-12306
arer	-12307
oning	-12308
lined	-12309
ropri	-12310
^{-\	-12311
▁2016,	-12312
_+	-12313
▁ignored	-12314
▁Besides	-12315
▁auf	-12316
▁blot	-12317
▁Would	-12318
ocolate	-12319
_{2}	-12320
▁140	-12321
▁flowers	-12322
fall	-12323
▁debut	-12324
▁drain	-12325
▁vag	-12326
▁2011,	-12327
zzle	-12328
▁Prem	-12329
▁ownership	-12330
▁Sche	-12331
▁computers	-12332
▁vessels	-12333
olis	-12334
▁bankruptcy	-12335
ocols	-12336
}[	-12337
▁bird	-12338
▁funny	-12339
dc	-12340
words	-12341
rait	-12342
▁locked	-12343
etary	-12344
▁dip	-12345
inator	-12346
rooms	-12347
▁complexes	-12348
full	-12349
asted	-12350
▁Gener	-12351
▁physician	-12352
$^{	-12353
riter	-12354
▁remembered	-12355
icking	-12356
▁plasm	-12357
▁concert	-12358
BB	-12359
▁illustrated	-12360
▁unclear	-12361
3\	-12362
▁Ren	-12363
▁Core	-12364
dp	-12365
▁stomach	-12366
▁[3](#	-12367
▁SR	-12368
hour	-12369
▁orbit	-12370
▁boxes	-12371
▁scream	-12372
▁carcinoma	-12373
Br	-12374
▁difficulties	-12375
▁Rather	-12376
▁merch	-12377
▁pulmonary	-12378
setminus	-12379
hl	-12380
▁headed	-12381
▁Norm	-12382
Server	-12383
▁caps	-12384
anded	-12385
▁attributed	-12386
anto	-12387
Ident	-12388
overty	-12389
clusively	-12390
▁inherent	-12391
formance	-12392
▁dysfunction	-12393
▁Jenn	-12394
LY	-12395
thur	-12396
▁intense	-12397
itated	-12398
▁treating	-12399
▁pad	-12400
Range	-12401
inflamm	-12402
▁destruction	-12403
Access	-12404
▁enthus	-12405
illary	-12406
▁Syn	-12407
▁sizeof	-12408
▁Columbia	-12409
▁beneficial	-12410
▁-16	-12411
▁gotten	-12412
▁worker	-12413
▁varied	-12414
Ver	-12415
▁vaccine	-12416
▁Inf	-12417
SQL	-12418
▁transmitted	-12419
▁promoter	-12420
▁branches	-12421
▁Conserv	-12422
berry	-12423
hspace	-12424
ITED	-12425
make	-12426
▁Korean	-12427
▁Nature	-12428
▁xe	-12429
associated	-12430
amento	-12431
▁4:	-12432
▁coordinate	-12433
▁sque	-12434
WH	-12435
▁preferably	-12436
▁adoles	-12437
25.	-12438
▁seeds	-12439
lesh	-12440
▁consistently	-12441
▁FBI	-12442
irit	-12443
▁topics	-12444
▁Five	-12445
▁repeatedly	-12446
GH	-12447
▁Sem	-12448
▁interpreted	-12449
DIR	-12450
▁23.	-12451
▁pounds	-12452
▁guidance	-12453
▁scar	-12454
▁mold	-12455
▁deeper	-12456
dire	-12457
Project	-12458
▁CF	-12459
▁hash	-12460
stop	-12461
who	-12462
▁defines	-12463
▁waters	-12464
▁sauce	-12465
▁convicted	-12466
▁Tele	-12467
▁Anth	-12468
▁burst	-12469
▁enthusi	-12470
▁ett	-12471
▁matrices	-12472
▁Var	-12473
-(	-12474
▁tent	-12475
▁residence	-12476
▁arise	-12477
▁82	-12478
aga	-12479
▁adapted	-12480
cam	-12481
▁neighb	-12482
▁Environment	-12483
▁literally	-12484
plicity	-12485
izable	-12486
▁Title	-12487
ulator	-12488
▁arrive	-12489
tmp	-12490
acco	-12491
▁designated	-12492
▁filling	-12493
scribe	-12494
▁"/	-12495
▁deck	-12496
achus	-12497
▁Jordan	-12498
▁Greg	-12499
▁symmetric	-12500
ijn	-12501
▁shoes	-12502
▁territory	-12503
endor	-12504
▁Link	-12505
▁laughed	-12506
oa	-12507
Inte	-12508
OUR	-12509
▁doses	-12510
ви	-12511
ools	-12512
▁integrity	-12513
El	-12514
urations	-12515
▁anger	-12516
▁93	-12517
▁cann	-12518
▁execute	-12519
▁occurring	-12520
▁interviews	-12521
▁somebody	-12522
▁hip	-12523
00000	-12524
ivariate	-12525
▁wing	-12526
▁Photo	-12527
▁olig	-12528
▁\"	-12529
▁cod	-12530
igate	-12531
▁Holly	-12532
Header	-12533
idine	-12534
▁specify	-12535
asive	-12536
Left	-12537
tree	-12538
▁0);	-12539
▁nobody	-12540
▁collective	-12541
▁visits	-12542
holders	-12543
▁correlations	-12544
▁describing	-12545
render	-12546
eterm	-12547
▁Update	-12548
}$$\	-12549
0,0,	-12550
▁hi	-12551
▁contacts	-12552
▁lifetime	-12553
burgh	-12554
▁Run	-12555
▁weird	-12556
comfort	-12557
▁emotion	-12558
▁diam	-12559
▁isolation	-12560
▁equilibrium	-12561
▁declined	-12562
▁Parliament	-12563
▁raising	-12564
▁Person	-12565
isl	-12566
textbf	-12567
▁wedding	-12568
▁doctrine	-12569
▁landscape	-12570
iy	-12571
▁Bab	-12572
▁Register	-12573
1(	-12574
▁Upon	-12575
▁toxic	-12576
aton	-12577
▁intens	-12578
▁gathered	-12579
▁Han	-12580
▁mini	-12581
▁breakfast	-12582
Sim	-12583
sett	-12584
▁een	-12585
▁alongside	-12586
ITE	-12587
dam	-12588
▁genuine	-12589
▁Cub	-12590
0.4	-12591
▁conjug	-12592
▁atom	-12593
▁ME	-12594
▁boss	-12595
ede	-12596
▁bundle	-12597
boot	-12598
Deb	-12599
▁talent	-12600
othelial	-12601
▁votes	-12602
lan	-12603
▁restrictions	-12604
▁reveals	-12605
199	-12606
▁más	-12607
▁lys	-12608
▁92	-12609
▁reflection	-12610
▁Comple	-12611
▁tensor	-12612
▁crash	-12613
versely	-12614
▁Creat	-12615
▁hospitals	-12616
when	-12617
▁derivatives	-12618
▁Oxford	-12619
▁Interestingly	-12620
▁dimin	-12621
cache	-12622
,{\	-12623
▁ML	-12624
ioxid	-12625
)[	-12626
▁sensors	-12627
▁gravity	-12628
▁Afghan	-12629
▁specificity	-12630
▁instruments	-12631
▁ought	-12632
▁600	-12633
▁rs	-12634
▁cosm	-12635
▁manually	-12636
IGN	-12637
▁factory	-12638
▁AA	-12639
}}_{\	-12640
▁feas	-12641
▁chat	-12642
^,	-12643
▁convin	-12644
▁visitors	-12645
micro	-12646
▁escap	-12647
▁Tax	-12648
▁vertices	-12649
▁Article	-12650
tim	-12651
▁frames	-12652
▁leuk	-12653
alities	-12654
ся	-12655
▁thrown	-12656
▁Colorado	-12657
phal	-12658
▁inches	-12659
▁ruled	-12660
▁Lat	-12661
▁gradually	-12662
▁infant	-12663
▁Os	-12664
6]	-12665
.02	-12666
▁arrival	-12667
nex	-12668
▁denial	-12669
▁ceremon	-12670
▁WE	-12671
▁expressing	-12672
▁variant	-12673
▁muse	-12674
▁Coast	-12675
▁labeled	-12676
▁hopes	-12677
▁hits	-12678
articles	-12679
▁spont	-12680
Med	-12681
mates	-12682
▁labels	-12683
▁117	-12684
▁monthly	-12685
▁functionality	-12686
▁fibers	-12687
hips	-12688
▁Crim	-12689
▁Recently	-12690
verted	-12691
ricular	-12692
▁emerged	-12693
▁Comb	-12694
GP	-12695
▁19.	-12696
▁liberal	-12697
}-\	-12698
▁Immun	-12699
.:	-12700
itudinal	-12701
▁denotes	-12702
▁fert	-12703
▁scholars	-12704
binding	-12705
▁105	-12706
▁tar	-12707
▁Arizona	-12708
flags	-12709
help	-12710
▁existed	-12711
▁Harris	-12712
Xiv	-12713
▁mock	-12714
elfare	-12715
▁Radio	-12716
▁champ	-12717
▁ni	-12718
arts	-12719
abbit	-12720
▁cub	-12721
edge	-12722
▁vig	-12723
▁attractive	-12724
4]	-12725
ès	-12726
▁inev	-12727
8*	-12728
▁este	-12729
▁Saf	-12730
▁Israeli	-12731
▁segments	-12732
▁Administration	-12733
▁insect	-12734
uble	-12735
▁tact	-12736
plates	-12737
email	-12738
▁5%	-12739
▁jail	-12740
iii	-12741
ubble	-12742
▁myth	-12743
develop	-12744
▁transactions	-12745
gly	-12746
▁transmit	-12747
Reference	-12748
▁--------------	-12749
▁Grant	-12750
lower	-12751
3:	-12752
Address	-12753
agent	-12754
FE	-12755
▁Arg	-12756
Down	-12757
▁twelve	-12758
Exec	-12759
owed	-12760
▁kg	-12761
▁variability	-12762
▁ocean	-12763
▁enables	-12764
▁Ali	-12765
alling	-12766
effective	-12767
▁4)	-12768
てい	-12769
▁Berlin	-12770
▁Princ	-12771
▁uma	-12772
utable	-12773
▁burning	-12774
▁custody	-12775
ISA	-12776
000.	-12777
▁muscles	-12778
▁satisfaction	-12779
▁knife	-12780
▁threw	-12781
\,\	-12782
▁remarkable	-12783
▁cardiovascular	-12784
▁royal	-12785
▁disrupt	-12786
▁governments	-12787
LO	-12788
▁hes	-12789
jar	-12790
▁gonna	-12791
▁aqu	-12792
▁governing	-12793
▁inserted	-12794
▁begun	-12795
lessly	-12796
idation	-12797
▁html	-12798
▁fibr	-12799
▁lap	-12800
▁compatible	-12801
▁entrance	-12802
▁repos	-12803
▁registration	-12804
▁Dom	-12805
▁discrete	-12806
forms	-12807
Sl	-12808
▁engagement	-12809
▁expon	-12810
▁Supplementary	-12811
▁validity	-12812
▁PE	-12813
5;	-12814
▁pneum	-12815
▁tap	-12816
▁infect	-12817
▁absorb	-12818
ulum	-12819
▁Psych	-12820
▁Agency	-12821
olen	-12822
▁ancest	-12823
▁transportation	-12824
250	-12825
bibr	-12826
odge	-12827
▁retain	-12828
▁combine	-12829
auth	-12830
▁Ak	-12831
bind	-12832
blem	-12833
ureau	-12834
▁JSON	-12835
▁strip	-12836
▁supplies	-12837
▁Beach	-12838
▁Δ	-12839
▁healing	-12840
▁116	-12841
▁deals	-12842
/11	-12843
▁distant	-12844
mentioned	-12845
ogram	-12846
enz	-12847
▁eligible	-12848
▁lands	-12849
▁Lyn	-12850
▁guests	-12851
▁Child	-12852
)}$	-12853
mask	-12854
oj	-12855
11,	-12856
▁assistant	-12857
▁chains	-12858
▁impression	-12859
omorphic	-12860
▁suspected	-12861
▁Broad	-12862
ERROR	-12863
regular	-12864
evin	-12865
amos	-12866
Cor	-12867
ilst	-12868
▁galaxy	-12869
norm	-12870
Num	-12871
▁corporation	-12872
rophy	-12873
plane	-12874
Any	-12875
▁shit	-12876
▁blocked	-12877
Acc	-12878
cases	-12879
▁bonds	-12880
cycle	-12881
▁delayed	-12882
▁brill	-12883
3>	-12884
▁102	-12885
cha	-12886
▁estimation	-12887
bian	-12888
▁matched	-12889
▁briefly	-12890
4;	-12891
▁packet	-12892
▁COP	-12893
▁pancre	-12894
▁disabled	-12895
▁PBS	-12896
away	-12897
▁throm	-12898
utt	-12899
▁118	-12900
▁implant	-12901
▁pregnant	-12902
ders	-12903
▁encounter	-12904
▁PB	-12905
▁Daily	-12906
▁weights	-12907
9).	-12908
▁offensive	-12909
area	-12910
▁dop	-12911
▁underwent	-12912
oche	-12913
imm	-12914
zone	-12915
analysis	-12916
missible	-12917
▁excessive	-12918
▁fitting	-12919
▁crossed	-12920
▁defeat	-12921
▁pressed	-12922
osomal	-12923
▁memories	-12924
▁quantities	-12925
family	-12926
▁surely	-12927
▁scalar	-12928
▁Moore	-12929
▁Hart	-12930
pow	-12931
ricts	-12932
▁pushing	-12933
clipse	-12934
▁Rail	-12935
0001	-12936
▁Vill	-12937
▁MAP	-12938
▁perception	-12939
framework	-12940
Am	-12941
phia	-12942
hn	-12943
▁Toronto	-12944
▁Expl	-12945
▁Medicine	-12946
irth	-12947
Pan	-12948
Case	-12949
agic	-12950
▁peaks	-12951
▁brothers	-12952
▁immigration	-12953
▁104	-12954
▁marijuana	-12955
apsed	-12956
▁Nob	-12957
▁conspiracy	-12958
▁shoulders	-12959
▁personality	-12960
Ke	-12961
▁Mars	-12962
pany	-12963
▁Gil	-12964
Null	-12965
▁awesome	-12966
▁physically	-12967
▁−0.	-12968
condition	-12969
▁amended	-12970
▁categor	-12971
inned	-12972
▁anterior	-12973
▁Ministry	-12974
▁glut	-12975
▁Mu	-12976
▁developer	-12977
▁Similar	-12978
▁accurately	-12979
▁reliability	-12980
▁Live	-12981
irtual	-12982
▁Very	-12983
▁pointing	-12984
▁violated	-12985
game	-12986
▁assumptions	-12987
▁overnight	-12988
▁surveillance	-12989
tbl	-12990
---------------	-12991
▁waited	-12992
uler	-12993
▁shaft	-12994
▁differently	-12995
~4~	-12996
▁clause	-12997
▁gri	-12998
▁bold	-12999
1\]	-13000
ITION	-13001
▁Example	-13002
▁systemic	-13003
▁artificial	-13004
▁politicians	-13005
▁τη	-13006
▁Islamic	-13007
▁Share	-13008
ESM	-13009
params	-13010
▁USB	-13011
▁suspension	-13012
▁lapt	-13013
▁mol	-13014
▁Dutch	-13015
▁Dark	-13016
▁phosphorylation	-13017
obacter	-13018
▁cot	-13019
mente	-13020
vance	-13021
▁borrow	-13022
▁commands	-13023
Application	-13024
▁γ	-13025
▁pub	-13026
Post	-13027
▁PHP	-13028
▁uptake	-13029
▁rating	-13030
▁Ident	-13031
ucl	-13032
▁Blood	-13033
▁dent	-13034
▁2\	-13035
▁equipped	-13036
▁$0	-13037
itzer	-13038
▁-----------	-13039
▁188	-13040
▁contemporary	-13041
▁platforms	-13042
▁Europ	-13043
hom	-13044
▁suicide	-13045
▁preventing	-13046
ockey	-13047
▁Mom	-13048
▁Ross	-13049
▁opens	-13050
▁quadr	-13051
success	-13052
▁är	-13053
▁detector	-13054
▁obtaining	-13055
▁2009,	-13056
▁iPhone	-13057
ounce	-13058
▁ions	-13059
▁extraord	-13060
▁physiological	-13061
EGF	-13062
▁2008,	-13063
...]	-13064
▁INS	-13065
None	-13066
▁MO	-13067
▁fallen	-13068
▁186	-13069
▁Clinical	-13070
▁SL	-13071
Process	-13072
▁EC	-13073
▁|\	-13074
▁progressive	-13075
▁Jane	-13076
AE	-13077
▁['	-13078
▁Gree	-13079
achusetts	-13080
)"	-13081
▁processor	-13082
meta	-13083
▁maximal	-13084
▁programme	-13085
▁painting	-13086
▁Naz	-13087
▁constitu	-13088
Tag	-13089
▁participated	-13090
pred	-13091
ouds	-13092
aceutical	-13093
etc	-13094
▁189	-13095
groups	-13096
\}	-13097
ications	-13098
▁obesity	-13099
▁loose	-13100
empl	-13101
▁rendered	-13102
olecular	-13103
lab	-13104
▁NFL	-13105
▁fifty	-13106
▁Bible	-13107
▁Sciences	-13108
▁breach	-13109
▁cavity	-13110
▁Allen	-13111
▁trends	-13112
▁proposition	-13113
▁extending	-13114
▁Bad	-13115
adelphia	-13116
oen	-13117
▁cultured	-13118
hash	-13119
PORT	-13120
▁chemotherapy	-13121
▁shortly	-13122
pin	-13123
▁episodes	-13124
rass	-13125
ango	-13126
four	-13127
▁Select	-13128
DD	-13129
▁glob	-13130
▁$('	-13131
bur	-13132
▁não	-13133
▁seats	-13134
▁Bor	-13135
[2]	-13136
▁mitochondrial	-13137
▁inverse	-13138
!)	-13139
▁DB	-13140
iones	-13141
▁fatty	-13142
▁tolerance	-13143
▁lum	-13144
▁vibr	-13145
>\	-13146
safe	-13147
channel	-13148
▁$1.	-13149
rogen	-13150
▁2017,	-13151
ressing	-13152
▁1960	-13153
▁impr	-13154
/(-2	-13155
▁{"	-13156
▁traject	-13157
▁legend	-13158
▁["	-13159
▁ALL	-13160
▁breaks	-13161
▁Notes	-13162
▁disclosure	-13163
.000	-13164
--1.	-13165
km	-13166
▁occupied	-13167
Rev	-13168
WE	-13169
▁scanning	-13170
bc	-13171
▁1$	-13172
▁publicly	-13173
▁incorrect	-13174
▁holiday	-13175
▁6-	-13176
▁striking	-13177
▁attempting	-13178
SV	-13179
ulent	-13180
▁spark	-13181
}{2}	-13182
▁invariant	-13183
▁Fa	-13184
▁spoken	-13185
▁pist	-13186
▁Navy	-13187
docs	-13188
▁subsid	-13189
{3	-13190
}^{(	-13191
▁likes	-13192
ashes	-13193
▁scenes	-13194
▁regulated	-13195
oga	-13196
▁Brian	-13197
▁scroll	-13198
▁dir	-13199
▁106	-13200
▁fought	-13201
▁divor	-13202
Task	-13203
▁prospective	-13204
▁stretch	-13205
pection	-13206
lee	-13207
▁Sud	-13208
0.8	-13209
▁stiff	-13210
▁scaling	-13211
▁Plus	-13212
▁complement	-13213
▁[5	-13214
figure	-13215
methyl	-13216
olo	-13217
'}	-13218
requency	-13219
onom	-13220
▁combinations	-13221
▁----------	-13222
▁establishment	-13223
iah	-13224
▁weekly	-13225
▁boundaries	-13226
▁confused	-13227
unes	-13228
▁prolong	-13229
▁approached	-13230
sed	-13231
zes	-13232
arded	-13233
▁transparent	-13234
may	-13235
▁dozen	-13236
Fs	-13237
container	-13238
▁Jacob	-13239
inflammatory	-13240
▁pending	-13241
▁nas	-13242
▁affecting	-13243
▁FR	-13244
scription	-13245
▁computation	-13246
▁deny	-13247
cht	-13248
▁collapse	-13249
▁Ark	-13250
send	-13251
▁Commer	-13252
▁reversed	-13253
▁optimization	-13254
▁tech	-13255
strap	-13256
▁buf	-13257
▁partly	-13258
▁Death	-13259
▁focusing	-13260
▁10-	-13261
▁Cancer	-13262
immun	-13263
0}	-13264
▁twe	-13265
▁Scotland	-13266
▁Story	-13267
▁transformed	-13268
eed	-13269
▁preparing	-13270
▁dump	-13271
Red	-13272
▁snap	-13273
GO	-13274
▁throat	-13275
1]:	-13276
▁Could	-13277
,$$	-13278
mma	-13279
▁eliminate	-13280
Tube	-13281
▁convinced	-13282
▁synthetic	-13283
▁favorable	-13284
▁abdom	-13285
▁merg	-13286
▁recipe	-13287
▁orange	-13288
▁Agreement	-13289
▁reflects	-13290
mate	-13291
▁unnecess	-13292
%%	-13293
▁Images	-13294
▁hill	-13295
aque	-13296
▁graft	-13297
▁tonight	-13298
▁phenotype	-13299
ritis	-13300
▁damaged	-13301
Pat	-13302
▁Small	-13303
▁Leon	-13304
▁Rand	-13305
▁soph	-13306
▁dock	-13307
▁solo	-13308
▁predictions	-13309
▁Less	-13310
ABILITY	-13311
lat	-13312
claimed	-13313
▁cholesterol	-13314
rocy	-13315
▁hack	-13316
ennis	-13317
▁Turkey	-13318
▁confusion	-13319
-06	-13320
▁capabilities	-13321
loop	-13322
Stat	-13323
7]	-13324
eur	-13325
▁-17	-13326
▁cortex	-13327
▁compression	-13328
▁sudo	-13329
▁grain	-13330
▁Unlike	-13331
▁anybody	-13332
idget	-13333
omers	-13334
▁ze	-13335
▁odds	-13336
▁sake	-13337
▁SELECT	-13338
-*	-13339
address	-13340
▁Natural	-13341
season	-13342
▁4](#	-13343
▁frozen	-13344
sky	-13345
held	-13346
▁ranges	-13347
gged	-13348
▁myst	-13349
ensing	-13350
desc	-13351
125	-13352
▁pleased	-13353
Sche	-13354
▁desert	-13355
Where	-13356
▁leak	-13357
derived	-13358
▁selective	-13359
▁communicate	-13360
▁strengthen	-13361
▁hoped	-13362
erred	-13363
fc	-13364
▁antagon	-13365
▁threatened	-13366
▁Dim	-13367
▁Box	-13368
oln	-13369
▁sentencing	-13370
▁supern	-13371
▁Systems	-13372
▁courses	-13373
sime	-13374
.).	-13375
▁nitrogen	-13376
▁circular	-13377
Connection	-13378
MOESM	-13379
▁atomic	-13380
Rel	-13381
images	-13382
ku	-13383
idav	-13384
▁darkness	-13385
>.	-13386
TV	-13387
gex	-13388
▁fits	-13389
▁Houston	-13390
▁din	-13391
▁dad	-13392
super	-13393
▁Block	-13394
BV	-13395
icker	-13396
▁scre	-13397
lings	-13398
itate	-13399
▁Pur	-13400
▁belt	-13401
▁Massachusetts	-13402
▁ears	-13403
▁adjustment	-13404
▁behaviors	-13405
▁exempt	-13406
;</	-13407
publ	-13408
▁(3.	-13409
▁authorized	-13410
asia	-13411
▁libraries	-13412
▁aims	-13413
▁elderly	-13414
ailing	-13415
uclear	-13416
elli	-13417
▁Come	-13418
▁pace	-13419
▁accompany	-13420
▁generator	-13421
~*	-13422
▁wondered	-13423
queue	-13424
▁Wel	-13425
▁suggestions	-13426
shaped	-13427
▁Kong	-13428
background	-13429
▁dating	-13430
▁Final	-13431
19.	-13432
token	-13433
▁fate	-13434
▁prosecution	-13435
▁cried	-13436
oro	-13437
▁electricity	-13438
▁voting	-13439
phosph	-13440
▁(20	-13441
▁va	-13442
▁nucleus	-13443
▁stellar	-13444
▁trim	-13445
handle	-13446
pread	-13447
▁coating	-13448
▁await	-13449
represent	-13450
/(-1	-13451
double	-13452
▁strictly	-13453
▁26.	-13454
simeq	-13455
▁Document	-13456
total	-13457
▁letting	-13458
ptic	-13459
▁AV	-13460
▁impressive	-13461
oven	-13462
▁probable	-13463
enza	-13464
ximate	-13465
▁̈	-13466
▁json	-13467
▁Gro	-13468
▁desktop	-13469
▁squad	-13470
▁bike	-13471
▁cul	-13472
even	-13473
Port	-13474
vir	-13475
▁100,	-13476
abling	-13477
idity	-13478
Url	-13479
stage	-13480
▁Ball	-13481
5*	-13482
aware	-13483
▁polynomial	-13484
▁discount	-13485
▁circuits	-13486
yard	-13487
▁paste	-13488
▁distances	-13489
004	-13490
▁extern	-13491
▁handed	-13492
▁vitamin	-13493
▁choosing	-13494
▁10^{	-13495
▁Unless	-13496
▁blame	-13497
{1}{2}	-13498
▁gross	-13499
▁potent	-13500
xsl	-13501
ppers	-13502
▁resin	-13503
Typ	-13504
▁surrounded	-13505
▁Hong	-13506
▁Change	-13507
▁Summer	-13508
acht	-13509
rett	-13510
▁parse	-13511
▁teasp	-13512
domain	-13513
itage	-13514
▁Dor	-13515
▁defining	-13516
7%	-13517
▁Particip	-13518
▁iso	-13519
ilipp	-13520
terminal	-13521
▁specimens	-13522
▁symbols	-13523
▁tie	-13524
▁tongue	-13525
▁campus	-13526
▁Pu	-13527
ikes	-13528
▁consensus	-13529
▁acted	-13530
▁pepper	-13531
▁visiting	-13532
▁heading	-13533
romagnetic	-13534
elson	-13535
/13	-13536
watch	-13537
▁occasionally	-13538
vised	-13539
▁logical	-13540
hd	-13541
▁bron	-13542
hs	-13543
cker	-13544
▁PART	-13545
AVE	-13546
gines	-13547
BUG	-13548
about	-13549
nl	-13550
Height	-13551
▁secured	-13552
▁stere	-13553
session	-13554
.*]{}	-13555
Ac	-13556
▁10^	-13557
▁coli	-13558
▁antenn	-13559
clock	-13560
▁für	-13561
▁silicon	-13562
▁Background	-13563
▁CV	-13564
Bo	-13565
Dir	-13566
_0\	-13567
wrap	-13568
▁stake	-13569
ifiers	-13570
▁shots	-13571
▁flows	-13572
debug	-13573
they	-13574
orneys	-13575
▁NF	-13576
▁abandoned	-13577
engers	-13578
orient	-13579
▁Empire	-13580
▁intracellular	-13581
▁Kr	-13582
▁minds	-13583
▁-18	-13584
▁motions	-13585
article	-13586
▁investigations	-13587
▁winner	-13588
perp	-13589
erry	-13590
▁emerging	-13591
ASK	-13592
ци	-13593
▁Assembly	-13594
▁Kevin	-13595
▁clothing	-13596
▁ticket	-13597
7}	-13598
agg	-13599
TL	-13600
Top	-13601
▁Ur	-13602
▁accomplished	-13603
esota	-13604
▁discloses	-13605
▁consisted	-13606
▁erred	-13607
005	-13608
▁beliefs	-13609
▁PI	-13610
▁aggressive	-13611
▁utter	-13612
▁nos	-13613
ERV	-13614
▁upgrade	-13615
▁appreciated	-13616
▁Kh	-13617
▁Palestin	-13618
▁Video	-13619
▁comparisons	-13620
▁Soc	-13621
▁modeling	-13622
▁Simon	-13623
▁alarm	-13624
▁rhy	-13625
▁certificate	-13626
support	-13627
▁voted	-13628
Update	-13629
▁Portug	-13630
▁MRI	-13631
▁websites	-13632
▁propri	-13633
Child	-13634
▁equality	-13635
}^{2	-13636
▁retro	-13637
▁(198	-13638
▁Works	-13639
▁injected	-13640
▁suspended	-13641
alo	-13642
Sign	-13643
urer	-13644
elect	-13645
ancers	-13646
▁Ot	-13647
▁poverty	-13648
/0	-13649
uple	-13650
=>	-13651
▁indication	-13652
henyl	-13653
Location	-13654
▁1996	-13655
▁	-13656
▁volumes	-13657
▁dense	-13658
▁vulnerable	-13659
▁lifted	-13660
▁stained	-13661
////////////////	-13662
▁traits	-13663
Offset	-13664
irectory	-13665
▁narrative	-13666
▁solved	-13667
▁corn	-13668
WA	-13669
▁dot	-13670
▁enhancement	-13671
7).	-13672
inners	-13673
▁screens	-13674
6%	-13675
0.3	-13676
BT	-13677
▁mim	-13678
▁epithelial	-13679
▁circles	-13680
join	-13681
tration	-13682
closure	-13683
Level	-13684
colon	-13685
▁spray	-13686
▁energies	-13687
▁documented	-13688
▁entre	-13689
▁expense	-13690
ococ	-13691
scope	-13692
▁Avenue	-13693
rated	-13694
▁loyal	-13695
▁Level	-13696
▁temp	-13697
▁VAL	-13698
▁preserve	-13699
▁allegedly	-13700
▁forty	-13701
▁Philadelphia	-13702
idespread	-13703
ativ	-13704
▁drives	-13705
▁province	-13706
▁---------------	-13707
▁limiting	-13708
)\,	-13709
Did	-13710
▁nons	-13711
jet	-13712
▁Summary	-13713
▁Fisher	-13714
ouri	-13715
enders	-13716
▁ì	-13717
▁virtually	-13718
▁satisfying	-13719
via	-13720
▁saving	-13721
ér	-13722
itus	-13723
▁Employ	-13724
Ag	-13725
▁python	-13726
▁Keep	-13727
▁exert	-13728
▁steam	-13729
▁Matthe	-13730
▁centuries	-13731
000,	-13732
▁alien	-13733
▁Holy	-13734
▁enemies	-13735
ocyt	-13736
▁protocols	-13737
:18	-13738
▁Ult	-13739
ffff	-13740
▁microscopy	-13741
▁punishment	-13742
Mar	-13743
▁BP	-13744
news	-13745
▁anth	-13746
ди	-13747
▁tends	-13748
▁endothelial	-13749
▁Bang	-13750
▁dar	-13751
▁cancel	-13752
▁attacked	-13753
floor	-13754
▁Online	-13755
▁Sarah	-13756
▁closure	-13757
▁Sure	-13758
▁Corn	-13759
▁Spr	-13760
▁exclusively	-13761
▁0.000	-13762
[$	-13763
▁Tok	-13764
▁10*	-13765
▁wider	-13766
0_	-13767
wealth	-13768
▁pic	-13769
′-	-13770
acles	-13771
▁rolled	-13772
pair	-13773
▁representations	-13774
▁trop	-13775
▁improper	-13776
Tree	-13777
ancies	-13778
good	-13779
▁lux	-13780
prim	-13781
▁smell	-13782
▁Apache	-13783
▁Being	-13784
▁quote	-13785
-10-00	-13786
ем	-13787
▁GC	-13788
▁Kelly	-13789
▁reaches	-13790
▁Turk	-13791
irts	-13792
▁decimal	-13793
▁overe	-13794
language	-13795
▁tags	-13796
▁deemed	-13797
Position	-13798
:=	-13799
▁tout	-13800
▁golden	-13801
track	-13802
▁polymorph	-13803
task	-13804
▁legislative	-13805
▁belongs	-13806
▁dramatic	-13807
▁titles	-13808
▁threats	-13809
▁Price	-13810
▁copper	-13811
▁inhab	-13812
fox	-13813
▁radial	-13814
▁Win	-13815
▁Ess	-13816
▁arrow	-13817
▁Hit	-13818
▁flavor	-13819
closed	-13820
▁dreams	-13821
vid	-13822
▁hypertension	-13823
▁ب	-13824
orer	-13825
▁distinction	-13826
▁Saud	-13827
▁128	-13828
▁demonstrates	-13829
cn	-13830
▁emotions	-13831
cells	-13832
▁2007,	-13833
▁electrons	-13834
▁Chen	-13835
ια	-13836
inement	-13837
bad	-13838
etheless	-13839
▁spots	-13840
aptic	-13841
▁Silver	-13842
fact	-13843
oker	-13844
▁Subject	-13845
▁Brother	-13846
▁mile	-13847
Bs	-13848
▁retired	-13849
▁Import	-13850
▁Hamiltonian	-13851
▁Ni	-13852
▁Bry	-13853
"};	-13854
▁lucky	-13855
▁motif	-13856
▁conservation	-13857
afe	-13858
▁LE	-13859
cpp	-13860
arding	-13861
▁Gaussian	-13862
ounding	-13863
▁similarity	-13864
▁liv	-13865
▁roads	-13866
▁deput	-13867
ificant	-13868
▁affairs	-13869
▁Inn	-13870
▁criticism	-13871
▁Moh	-13872
▁Budd	-13873
▁Ele	-13874
oser	-13875
▁kan	-13876
quarters	-13877
▁governor	-13878
▁curious	-13879
▁accomplish	-13880
▁attachment	-13881
isi	-13882
▁Pear	-13883
▁dy	-13884
oxide	-13885
▁WITHOUT	-13886
▁Crit	-13887
▁coronary	-13888
▁Colon	-13889
quer	-13890
▁math	-13891
orb	-13892
▁captain	-13893
▁Minnesota	-13894
Last	-13895
▁airport	-13896
vens	-13897
inely	-13898
▁TNF	-13899
▁inquiry	-13900
▁про	-13901
?)	-13902
▁meaningful	-13903
atom	-13904
▁Film	-13905
▁offices	-13906
ceive	-13907
▁dried	-13908
walk	-13909
▁27.	-13910
▁participant	-13911
▁indices	-13912
▁actors	-13913
▁bol	-13914
3),	-13915
being	-13916
▁definitions	-13917
▁isolates	-13918
uts	-13919
▁heaven	-13920
2017	-13921
▁encountered	-13922
▁denying	-13923
▁INT	-13924
▁batch	-13925
▁fragments	-13926
▁3.2	-13927
offs	-13928
▁relie	-13929
▁wis	-13930
▁promoting	-13931
▁SI	-13932
▁prevented	-13933
▁TB	-13934
▁deficiency	-13935
2016	-13936
▁Tony	-13937
▁moist	-13938
▁ES	-13939
▁resistant	-13940
▁peer	-13941
Enc	-13942
▁weigh	-13943
icture	-13944
phase	-13945
▁Incre	-13946
▁crossing	-13947
Module	-13948
▁tries	-13949
▁PK	-13950
▁disse	-13951
▁consciousness	-13952
Debug	-13953
▁Sports	-13954
Menu	-13955
▁acknowledge	-13956
▁Å	-13957
▁grey	-13958
▁buff	-13959
Op	-13960
icked	-13961
▁producer	-13962
command	-13963
tn	-13964
Interface	-13965
▁adip	-13966
▁---------	-13967
whe	-13968
▁gig	-13969
▁hanging	-13970
▁Property	-13971
▁bedroom	-13972
-25	-13973
▁counterpart	-13974
▁pulling	-13975
\_[	-13976
▁arising	-13977
iotics	-13978
seq	-13979
opsy	-13980
▁Scale	-13981
▁independence	-13982
▁eleg	-13983
connected	-13984
igue	-13985
▁reset	-13986
▁warned	-13987
▁lovely	-13988
▁admin	-13989
▁aug	-13990
10)	-13991
▁trem	-13992
ente	-13993
▁bom	-13994
▁drama	-13995
▁reconstruction	-13996
}"	-13997
father	-13998
Provider	-13999
▁hep	-14000
▁rolling	-14001
screen	-14002
allas	-14003
▁chap	-14004
▁efficiently	-14005
▁Burn	-14006
▁Girl	-14007
member	-14008
▁grace	-14009
▁potato	-14010
imation	-14011
▁receives	-14012
▁inputs	-14013
▁rif	-14014
▁oven	-14015
sun	-14016
▁Convention	-14017
▁1.4	-14018
▁28.	-14019
ocom	-14020
0.001	-14021
▁currency	-14022
▁Pier	-14023
[^	-14024
▁merc	-14025
▁ya	-14026
▁plugin	-14027
-24	-14028
▁suppression	-14029
▁11*	-14030
▁swing	-14031
▁Materials	-14032
▁pap	-14033
▁Stone	-14034
▁defensive	-14035
▁managing	-14036
▁joining	-14037
▁referring	-14038
ENER	-14039
tor	-14040
ialize	-14041
▁2016.	-14042
hbar	-14043
▁extrac	-14044
Entry	-14045
▁Left	-14046
▁dying	-14047
integr	-14048
vet	-14049
▁touched	-14050
-1-	-14051
▁Arts	-14052
TF	-14053
generation	-14054
▁historic	-14055
angel	-14056
▁pric	-14057
▁condem	-14058
tail	-14059
▁bounds	-14060
▁servers	-14061
▁fiction	-14062
▁collaboration	-14063
▁Pow	-14064
▁supporters	-14065
Work	-14066
_2(	-14067
▁capability	-14068
▁texture	-14069
▁sheets	-14070
▁Convert	-14071
▁appointment	-14072
▁Anal	-14073
▁proportional	-14074
▁clinic	-14075
ogs	-14076
▁milit	-14077
▁Area	-14078
▁regulate	-14079
▁widespread	-14080
idate	-14081
▁YouTube	-14082
riction	-14083
τα	-14084
▁COURT	-14085
▁establishing	-14086
alg	-14087
▁slide	-14088
▁obsc	-14089
▁dispos	-14090
▁shirt	-14091
▁optional	-14092
uto	-14093
▁arts	-14094
Names	-14095
▁mature	-14096
▁103	-14097
▁seal	-14098
aid	-14099
obb	-14100
▁Indiana	-14101
energy	-14102
▁neighbour	-14103
▁sper	-14104
▁surviv	-14105
▁Invention	-14106
▁Duke	-14107
bd	-14108
edu	-14109
▁Bat	-14110
Impl	-14111
▁funded	-14112
Sch	-14113
Unit	-14114
izers	-14115
cu	-14116
Book	-14117
ρο	-14118
▁toxicity	-14119
▁dressed	-14120
YP	-14121
▁Hind	-14122
Dr	-14123
phant	-14124
▁WHERE	-14125
▁queue	-14126
▁buried	-14127
dated	-14128
▁Proced	-14129
}]	-14130
▁Arthur	-14131
▁prejudice	-14132
▁tender	-14133
▁Hom	-14134
▁retained	-14135
▁publisher	-14136
▁و	-14137
▁fru	-14138
▁fitted	-14139
▁termination	-14140
▁timely	-14141
▁Market	-14142
▁modifications	-14143
emat	-14144
▁hex	-14145
▁goto	-14146
udes	-14147
▁GM	-14148
▁imprison	-14149
="@	-14150
RES	-14151
▁oxidative	-14152
▁pale	-14153
consin	-14154
rying	-14155
▁Revolution	-14156
Pass	-14157
▁localization	-14158
▁membership	-14159
window	-14160
▁encouraged	-14161
emon	-14162
▁inhibited	-14163
▁longitudinal	-14164
abama	-14165
(4	-14166
ophag	-14167
▁Station	-14168
▁(100	-14169
▁Graph	-14170
▁PER	-14171
ping	-14172
▁breathing	-14173
▁Clark	-14174
scal	-14175
Core	-14176
Entity	-14177
▁nanop	-14178
cmd	-14179
▁Cells	-14180
issa	-14181
ophil	-14182
▁retros	-14183
NG	-14184
pur	-14185
▁spectrosc	-14186
▁entities	-14187
iu	-14188
ariance	-14189
▁Jam	-14190
depend	-14191
▁preference	-14192
▁shifted	-14193
▁ATP	-14194
▁rings	-14195
anth	-14196
modules	-14197
▁Hotel	-14198
ById	-14199
hma	-14200
▁]{}	-14201
▁constants	-14202
▁Future	-14203
▁stared	-14204
final	-14205
appropri	-14206
▁append	-14207
▁angi	-14208
▁editing	-14209
▁Roy	-14210
▁Tai	-14211
▁angles	-14212
"))	-14213
ounter	-14214
bean	-14215
▁orb	-14216
▁HTT	-14217
ordon	-14218
phasis	-14219
▁bases	-14220
ля	-14221
KEY	-14222
looking	-14223
▁arth	-14224
-2.	-14225
prom	-14226
▁Bud	-14227
▁Orig	-14228
▁slope	-14229
▁relate	-14230
▁farmers	-14231
-21	-14232
▁perpet	-14233
▁factual	-14234
Just	-14235
▁pixels	-14236
levant	-14237
▁2015.	-14238
8%	-14239
▁2014.	-14240
▁ta	-14241
▁replication	-14242
▁Defense	-14243
▁Neg	-14244
0.9	-14245
roit	-14246
▁graphs	-14247
▁scoring	-14248
▁Eight	-14249
▁EP	-14250
▁Heart	-14251
▁behavioral	-14252
ancial	-14253
▁polarization	-14254
▁"<	-14255
▁grateful	-14256
▁Yeah	-14257
▁COMM	-14258
LP	-14259
▁overt	-14260
priv	-14261
Run	-14262
▁20%	-14263
▁Load	-14264
▁Fac	-14265
▁fitness	-14266
regon	-14267
▁Dick	-14268
▁chances	-14269
▁challenged	-14270
▁MC	-14271
▁Writ	-14272
=[	-14273
role	-14274
▁Fri	-14275
▁Stock	-14276
▁embodiment	-14277
▁genomic	-14278
▁jun	-14279
▁empir	-14280
▁melt	-14281
7){	-14282
▁disagree	-14283
NOT	-14284
ANG	-14285
▁Farm	-14286
▁Sym	-14287
▁plots	-14288
▁187	-14289
fields	-14290
2015	-14291
++;	-14292
ocl	-14293
ogue	-14294
instein	-14295
ummy	-14296
(){	-14297
eenth	-14298
Bit	-14299
▁Ron	-14300
▁eastern	-14301
▁Amb	-14302
▁franch	-14303
Mat	-14304
▁wanting	-14305
Met	-14306
▁germ	-14307
▁Josh	-14308
▁incredible	-14309
▁nick	-14310
▁SF	-14311
▁juice	-14312
▁upset	-14313
▁FC	-14314
eg	-14315
pmatrix	-14316
▁Philip	-14317
▁rescue	-14318
▁subgroup	-14319
▁legitimate	-14320
▁secretary	-14321
Local	-14322
▁spinal	-14323
▁enormous	-14324
heres	-14325
},$$	-14326
▁160	-14327
▁entertainment	-14328
▁-11	-14329
▁fut	-14330
▁generalized	-14331
▁Ka	-14332
▁nous	-14333
/15	-14334
displaystyle	-14335
▁800	-14336
_*	-14337
8).	-14338
lict	-14339
▁Row	-14340
▁fond	-14341
▁satellite	-14342
tain	-14343
▁complaints	-14344
01.	-14345
▁emissions	-14346
▁132	-14347
▁induces	-14348
▁acknowledged	-14349
▁61	-14350
metry	-14351
▁electrodes	-14352
▁Pract	-14353
DO	-14354
xf	-14355
▁Marsh	-14356
▁affidav	-14357
▁hosts	-14358
▁crystall	-14359
▁macro	-14360
▁Kansas	-14361
>::	-14362
▁basketball	-14363
▁placement	-14364
ividual	-14365
ASH	-14366
usive	-14367
▁irrad	-14368
iac	-14369
{"	-14370
▁depriv	-14371
▁suggestion	-14372
▁Records	-14373
▁annoy	-14374
▁mountains	-14375
▁hired	-14376
este	-14377
▁wore	-14378
hou	-14379
▁XX	-14380
ynthesis	-14381
▁Gib	-14382
printf	-14383
eron	-14384
▁fluctuations	-14385
▁physicians	-14386
vard	-14387
hell	-14388
▁Imp	-14389
1---	-14390
▁2013.	-14391
▁Everything	-14392
▁XML	-14393
▁seeks	-14394
▁Notice	-14395
uming	-14396
▁pink	-14397
▁randomized	-14398
▁MB	-14399
covery	-14400
▁Cit	-14401
1.2	-14402
▁Modern	-14403
▁trauma	-14404
▁Bol	-14405
▁(95%	-14406
▁nonlinear	-14407
▁sword	-14408
▁Howard	-14409
▁Wars	-14410
3(	-14411
ONG	-14412
▁[...]	-14413
oscopic	-14414
▁Currently	-14415
▁Barn	-14416
hw	-14417
racted	-14418
security	-14419
Pad	-14420
;&	-14421
ées	-14422
▁march	-14423
ims	-14424
▁baseball	-14425
▁callback	-14426
де	-14427
lyn	-14428
Change	-14429
▁democracy	-14430
habil	-14431
▁bip	-14432
=-	-14433
▁LC	-14434
▁EM	-14435
▁Mut	-14436
rule	-14437
▁dollar	-14438
▁BMI	-14439
▁wooden	-14440
▁stating	-14441
▁Command	-14442
▁maternal	-14443
▁ridic	-14444
▁Las	-14445
▁е	-14446
▁Vo	-14447
▁ii	-14448
bery	-14449
▁AI	-14450
ceptions	-14451
▁Mess	-14452
▁weakness	-14453
Ðo	-14454
▁navigation	-14455
syn	-14456
▁lake	-14457
▁tet	-14458
FILE	-14459
▁IgG	-14460
▁intersection	-14461
▁ot	-14462
▁seiz	-14463
▁cake	-14464
▁Hu	-14465
wich	-14466
▁Iowa	-14467
▁brilliant	-14468
▁hub	-14469
▁generations	-14470
aden	-14471
▁overlap	-14472
▁filters	-14473
▁Neither	-14474
▁blocking	-14475
▁lifestyle	-14476
hole	-14477
application	-14478
▁obligation	-14479
▁ä	-14480
▁======	-14481
hm	-14482
▁acceptance	-14483
▁slot	-14484
▁Governor	-14485
▁elastic	-14486
▁108	-14487
itarian	-14488
▁donor	-14489
▁concur	-14490
iso	-14491
▁decomposition	-14492
heter	-14493
▁tendency	-14494
▁dominated	-14495
▁а	-14496
▁mothers	-14497
▁tournament	-14498
▁corp	-14499
Rad	-14500
▁fis	-14501
ikip	-14502
▁Commissioner	-14503
▁stops	-14504
made	-14505
▁Dise	-14506
burn	-14507
▁forgotten	-14508
▁continuously	-14509
64_	-14510
auc	-14511
▁casual	-14512
▁FILE	-14513
comment	-14514
disp	-14515
▁Atlantic	-14516
▁precip	-14517
▁RF	-14518
andal	-14519
0.05	-14520
▁Digital	-14521
▁Marg	-14522
plot	-14523
137	-14524
▁1%	-14525
▁determines	-14526
his	-14527
▁objection	-14528
▁2012.	-14529
▁positively	-14530
▁explored	-14531
rage	-14532
▁permissions	-14533
Current	-14534
_{3	-14535
PER	-14536
():	-14537
bigg	-14538
nutrients	-14539
cia	-14540
▁isot	-14541
▁finance	-14542
▁ABC	-14543
▁undergo	-14544
▁Alabama	-14545
▁bills	-14546
▁(6)	-14547
▁lon	-14548
▁Between	-14549
▁Respond	-14550
uda	-14551
Good	-14552
した	-14553
▁quoted	-14554
▁viruses	-14555
1.1	-14556
/.	-14557
▁10:	-14558
▁stimulus	-14559
▁Battle	-14560
する	-14561
▁prosecutor	-14562
esty	-14563
005){	-14564
▁2006,	-14565
rez	-14566
▁curv	-14567
▁enact	-14568
▁notation	-14569
(-2	-14570
custom	-14571
found	-14572
▁cups	-14573
▁conserved	-14574
▁alumin	-14575
▁inject	-14576
_[	-14577
;">	-14578
Http	-14579
aten	-14580
oton	-14581
▁styles	-14582
Container	-14583
wd	-14584
▁sentences	-14585
▁trivial	-14586
▁Festival	-14587
▁restore	-14588
130	-14589
ortic	-14590
owski	-14591
javascript	-14592
rowth	-14593
▁managers	-14594
pend	-14595
▁eager	-14596
▁firing	-14597
aires	-14598
▁bones	-14599
-23	-14600
lies	-14601
▁stimuli	-14602
8]	-14603
▁Hollywood	-14604
DU	-14605
OVA	-14606
▁promotion	-14607
▁Nations	-14608
ру	-14609
LT	-14610
▁cant	-14611
▁nec	-14612
▁wash	-14613
▁speaker	-14614
▁elabor	-14615
▁Observ	-14616
cursor	-14617
▁wrapped	-14618
▁mos	-14619
READ	-14620
▁Content	-14621
▁Wisconsin	-14622
▁racial	-14623
Who	-14624
▁Abs	-14625
▁minority	-14626
▁retirement	-14627
INK	-14628
▁Peters	-14629
▁viewing	-14630
▁Lag	-14631
lich	-14632
APTER	-14633
ogens	-14634
▁expertise	-14635
inent	-14636
▁Chair	-14637
▁amend	-14638
▁shapes	-14639
▁sleeping	-14640
8}	-14641
enable	-14642
category	-14643
quot	-14644
▁reven	-14645
▁convergence	-14646
▁GP	-14647
driv	-14648
▁2017.	-14649
Pos	-14650
▁Diego	-14651
▁BBC	-14652
3%	-14653
▁1);	-14654
▁Et	-14655
▁Ta	-14656
oprotein	-14657
should	-14658
▁engines	-14659
▁wins	-14660
▁Self	-14661
▁Walker	-14662
/−	-14663
▁Football	-14664
Will	-14665
essee	-14666
▁aus	-14667
'(	-14668
▁Bio	-14669
^{+	-14670
▁Bitcoin	-14671
adequ	-14672
degree	-14673
wiki	-14674
▁dietary	-14675
▁blade	-14676
▁drum	-14677
▁LED	-14678
Car	-14679
▁DA	-14680
▁Patrick	-14681
00.	-14682
REF	-14683
ма	-14684
▁[^1]:	-14685
AME	-14686
pb	-14687
ми	-14688
▁mediated	-14689
Some	-14690
eff	-14691
▁chocolate	-14692
▁shifts	-14693
Description	-14694
Mult	-14695
▁amendment	-14696
▁5:	-14697
mers	-14698
▁bios	-14699
▁bleeding	-14700
▁Wales	-14701
forall	-14702
▁claiming	-14703
▁Ont	-14704
igm	-14705
forming	-14706
▁advised	-14707
▁Cab	-14708
▁therein	-14709
▁aging	-14710
wait	-14711
Next	-14712
▁avec	-14713
▁cookies	-14714
▁Christians	-14715
▁107	-14716
▁rit	-14717
TX	-14718
▁indicator	-14719
conv	-14720
replace	-14721
▁floating	-14722
▁breat	-14723
omed	-14724
▁lets	-14725
▁incomp	-14726
oglob	-14727
asting	-14728
▁poison	-14729
human	-14730
▁incent	-14731
▁oc	-14732
ões	-14733
insert	-14734
ikipedia	-14735
wen	-14736
▁faculty	-14737
▁Morgan	-14738
▁exclusion	-14739
mass	-14740
▁packed	-14741
▁possibilities	-14742
▁lacking	-14743
far	-14744
ighters	-14745
▁unnecessary	-14746
+)	-14747
▁questionnaire	-14748
filled	-14749
▁Dave	-14750
hex	-14751
▁Scientific	-14752
Grid	-14753
▁upcoming	-14754
esh	-14755
inos	-14756
▁Sie	-14757
▁Front	-14758
▁femin	-14759
ammed	-14760
▁frustr	-14761
Title	-14762
bullet	-14763
▁promoted	-14764
_1}	-14765
▁lawsuit	-14766
▁scenarios	-14767
Mark	-14768
oscow	-14769
^{-1}$	-14770
0.7	-14771
Your	-14772
▁dispers	-14773
▁impairment	-14774
▁cancell	-14775
▁positioned	-14776
-1}\	-14777
▁litigation	-14778
hift	-14779
▁corrected	-14780
▁э	-14781
ycl	-14782
▁restaurants	-14783
▁periodic	-14784
mother	-14785
9]	-14786
rific	-14787
Long	-14788
▁pursue	-14789
▁emphasis	-14790
-2-	-14791
▁NR	-14792
▁Appro	-14793
|^2	-14794
incoln	-14795
older	-14796
▁Something	-14797
▁reasoning	-14798
140	-14799
urred	-14800
slant	-14801
.\[[@	-14802
▁fifteen	-14803
bat	-14804
iami	-14805
▁IFN	-14806
▁perme	-14807
1);	-14808
▁-20	-14809
ulsion	-14810
▁asset	-14811
ogeneity	-14812
▁Oregon	-14813
▁implicit	-14814
▁FT	-14815
180	-14816
▁TE	-14817
▁Remember	-14818
▁han	-14819
ourier	-14820
lag	-14821
irds	-14822
▁proc	-14823
▁ambig	-14824
▁yours	-14825
▁strategic	-14826
▁expectation	-14827
▁needle	-14828
▁Victor	-14829
▁hearts	-14830
GM	-14831
9%	-14832
diff	-14833
random	-14834
▁tooth	-14835
inen	-14836
▁Spirit	-14837
▁spell	-14838
▁actively	-14839
iliary	-14840
Inv	-14841
Living	-14842
ensively	-14843
▁Everyone	-14844
▁cameras	-14845
▁premium	-14846
▁publish	-14847
▁purified	-14848
heet	-14849
▁“[	-14850
▁shipping	-14851
▁fake	-14852
▁\+	-14853
▁traveling	-14854
▁chromosome	-14855
▁secretion	-14856
▁Rick	-14857
▁ric	-14858
▁sons	-14859
▁login	-14860
)_	-14861
▁harass	-14862
ém	-14863
/20	-14864
▁conflicts	-14865
AAAA	-14866
▁Manager	-14867
▁’	-14868
▁detecting	-14869
▁morphology	-14870
▁downstream	-14871
▁minimize	-14872
▁CE	-14873
▁presenting	-14874
▁Returns	-14875
velope	-14876
▁mining	-14877
▁agreements	-14878
▁ü	-14879
▁embarrass	-14880
▁squee	-14881
▁birthday	-14882
DF	-14883
▁Kom	-14884
▁[1]	-14885
▁Nether	-14886
0,\	-14887
▁justify	-14888
▁happiness	-14889
▁Foreign	-14890
▁staying	-14891
▁extr	-14892
yy	-14893
uction	-14894
▁WARRANTIES	-14895
▁routes	-14896
>0$	-14897
pic	-14898
3.0	-14899
▁Jay	-14900
▁yeast	-14901
▁phones	-14902
▁computational	-14903
boy	-14904
Que	-14905
▁advis	-14906
hep	-14907
▁ghost	-14908
▁myocard	-14909
▁RO	-14910
▁laptop	-14911
umbled	-14912
▁mutants	-14913
▁lesion	-14914
ça	-14915
▁respondent	-14916
▁(11	-14917
▁preserved	-14918
2],	-14919
rifug	-14920
▁Prop	-14921
eda	-14922
................	-14923
btn	-14924
▁straightforward	-14925
three	-14926
Ca	-14927
UV	-14928
▁THAT	-14929
▁Claim	-14930
▁Seattle	-14931
’.	-14932
ifact	-14933
▁loves	-14934
component	-14935
piece	-14936
▁impaired	-14937
▁-19	-14938
▁Liber	-14939
▁Roberts	-14940
▁cous	-14941
▁clubs	-14942
bytes	-14943
abases	-14944
xual	-14945
▁derive	-14946
shape	-14947
▁Books	-14948
▁mayor	-14949
▁tob	-14950
=3	-14951
▁configured	-14952
▁poorly	-14953
lium	-14954
▁fatal	-14955
ää	-14956
4:	-14957
mia	-14958
rank	-14959
▁occasions	-14960
▁transient	-14961
_0(	-14962
▁disappeared	-14963
▁disaster	-14964
▁melan	-14965
▁pole	-14966
eland	-14967
▁dated	-14968
lit	-14969
▁109	-14970
▁membranes	-14971
▁Motion	-14972
▁chromat	-14973
▁hormone	-14974
▁initiated	-14975
▁macrophages	-14976
▁founder	-14977
▁Sky	-14978
▁participating	-14979
▁demanded	-14980
iaz	-14981
▁Jason	-14982
▁Fourth	-14983
SCs	-14984
▁2010.	-14985
▁protecting	-14986
▁intrinsic	-14987
amide	-14988
olving	-14989
▁disposed	-14990
▁landing	-14991
▁Prob	-14992
▁aligned	-14993
mitting	-14994
package	-14995
015	-14996
SY	-14997
estamp	-14998
▁accordingly	-14999
▁grat	-15000
▁Transport	-15001
Tool	-15002
▁everyday	-15003
▁HA	-15004
▁tomat	-15005
▁solvent	-15006
▁genus	-15007
▁MM	-15008
▁în	-15009
Reader	-15010
ere	-15011
▁keyboard	-15012
OME	-15013
orts	-15014
▁relied	-15015
▁LET	-15016
▁Unit	-15017
▁Golden	-15018
▁CSS	-15019
▁11:	-15020
▁$${\	-15021
▁riding	-15022
▁BM	-15023
Da	-15024
▁Tam	-15025
▁graphics	-15026
▁Cole	-15027
'>	-15028
▁respondents	-15029
Template	-15030
igration	-15031
ea	-15032
▁185	-15033
▁Dun	-15034
▁Store	-15035
2"	-15036
”)	-15037
▁bags	-15038
connection	-15039
Then	-15040
▁$100	-15041
▁intact	-15042
▁officially	-15043
ardo	-15044
widget	-15045
▁extraordinary	-15046
▁pipeline	-15047
▁myster	-15048
▁piv	-15049
▁cancers	-15050
▁affinity	-15051
▁fever	-15052
▁Him	-15053
4%	-15054
▁ka	-15055
▁gaze	-15056
▁abilities	-15057
▁df	-15058
▁phyl	-15059
▁Much	-15060
adder	-15061
▁Vi	-15062
▁representatives	-15063
etermined	-15064
usted	-15065
▁datasets	-15066
Graph	-15067
uther	-15068
▁Drug	-15069
BF	-15070
▁gently	-15071
▁als	-15072
&0	-15073
(\[	-15074
▁exped	-15075
▁slave	-15076
Sw	-15077
$]{}	-15078
grid	-15079
instance	-15080
▁Kennedy	-15081
▁distinguished	-15082
xs	-15083
▁peptides	-15084
1,\	-15085
▁barrel	-15086
▁reds	-15087
▁cytop	-15088
▁shame	-15089
olin	-15090
▁2005,	-15091
▁Maryland	-15092
▁vas	-15093
letal	-15094
▁considerably	-15095
▁toss	-15096
mapsto	-15097
▁≤	-15098
▁crown	-15099
▁Phill	-15100
▁secre	-15101
ouver	-15102
IDS	-15103
arity	-15104
▁debtor	-15105
▁voices	-15106
–2	-15107
▁prescribed	-15108
▁trap	-15109
▁Editor	-15110
▁infants	-15111
▁Treatment	-15112
▁counting	-15113
Stack	-15114
{}	-15115
▁sphere	-15116
▁indict	-15117
▁tel	-15118
▁functioning	-15119
ouses	-15120
▁-2,	-15121
▁Tennessee	-15122
▁inhibit	-15123
▁xmlns	-15124
▁Appendix	-15125
▁2011.	-15126
atar	-15127
▁prostate	-15128
===========	-15129
▁Ide	-15130
▁replacing	-15131
▁citizen	-15132
▁exhibits	-15133
▁beings	-15134
admin	-15135
▁Decl	-15136
▁wisdom	-15137
▁Pitt	-15138
▁collision	-15139
▁della	-15140
▁slice	-15141
▁struggling	-15142
opathy	-15143
▁fishing	-15144
123	-15145
wave	-15146
apore	-15147
▁Dur	-15148
▁Building	-15149
▁ov	-15150
▁vegetables	-15151
▁[4](#	-15152
▁inflation	-15153
erto	-15154
oca	-15155
▁CNN	-15156
▁canonical	-15157
▁DI	-15158
LINE	-15159
▁2018,	-15160
не	-15161
▁modulation	-15162
▁Nation	-15163
▁consistency	-15164
▁antioxid	-15165
rapper	-15166
peror	-15167
Main	-15168
reference	-15169
▁priest	-15170
▁flesh	-15171
▁appearing	-15172
▁placing	-15173
▁explaining	-15174
▁fantastic	-15175
▁ORDER	-15176
▁Student	-15177
▁entropy	-15178
▁photon	-15179
00,000	-15180
▁Ale	-15181
▁Forest	-15182
▁importantly	-15183
▁schemes	-15184
release	-15185
Eq	-15186
doi	-15187
▁signing	-15188
▁simulated	-15189
▁nurse	-15190
▁illust	-15191
global	-15192
Order	-15193
▁generates	-15194
itance	-15195
▁Commonwealth	-15196
▁cf	-15197
idae	-15198
MAP	-15199
▁mutual	-15200
rio	-15201
▁nie	-15202
bras	-15203
rior	-15204
▁wise	-15205
,\,	-15206
cong	-15207
▁Brief	-15208
▁Rules	-15209
▁advertis	-15210
▁controversial	-15211
▁drops	-15212
boost	-15213
▁ра	-15214
▁robot	-15215
9/	-15216
Var	-15217
semble	-15218
▁syntax	-15219
▁strat	-15220
▁welfare	-15221
aman	-15222
fers	-15223
amy	-15224
mol	-15225
▁Sab	-15226
▁Saudi	-15227
▁liable	-15228
JS	-15229
▁analysed	-15230
▁divid	-15231
▁fibro	-15232
▁0}	-15233
▁Philipp	-15234
\_\	-15235
▁Bureau	-15236
typen	-15237
▁bent	-15238
▁hipp	-15239
▁29.	-15240
days	-15241
▁Dead	-15242
forced	-15243
amous	-15244
▁-2.	-15245
▁Emer	-15246
gate	-15247
best	-15248
▁Ped	-15249
▁Anthony	-15250
Dat	-15251
▁announcement	-15252
▁Belg	-15253
▁investigating	-15254
ographical	-15255
PECT	-15256
▁handled	-15257
▁incubation	-15258
▁1995	-15259
oons	-15260
▁paus	-15261
holds	-15262
emale	-15263
▁Hans	-15264
▁cytokines	-15265
▁tickets	-15266
▁merit	-15267
:20	-15268
aping	-15269
asses	-15270
-)	-15271
▁belonging	-15272
AX	-15273
ulse	-15274
prefix	-15275
▁ug	-15276
▁Loc	-15277
▁PP	-15278
THER	-15279
▁0.02	-15280
▁Square	-15281
▁cer	-15282
▁disappear	-15283
rea	-15284
▁caf	-15285
▁persistent	-15286
▁Sel	-15287
▁Cooper	-15288
▁Auto	-15289
▁pride	-15290
▁judges	-15291
▁hast	-15292
Doc	-15293
tah	-15294
typename	-15295
▁quasi	-15296
patient	-15297
ionic	-15298
▁localized	-15299
scious	-15300
▁suck	-15301
owned	-15302
▁featuring	-15303
▁individually	-15304
▁Lic	-15305
▁loans	-15306
▁predictive	-15307
entials	-15308
▁flexibility	-15309
5.0	-15310
▁organs	-15311
oop	-15312
▁violations	-15313
▁Character	-15314
asonable	-15315
6;	-15316
▁Trib	-15317
ACC	-15318
gathered	-15319
▁tweet	-15320
▁basal	-15321
▁Hur	-15322
▁noting	-15323
▁innovation	-15324
ogy	-15325
FAULT	-15326
▁guilt	-15327
▁Ti	-15328
izar	-15329
fficiency	-15330
RR	-15331
adas	-15332
▁relies	-15333
-2,	-15334
ockets	-15335
▁lighting	-15336
ARS	-15337
▁formulation	-15338
resource	-15339
▁iOS	-15340
aco	-15341
jor	-15342
▁attach	-15343
▁translated	-15344
ORY	-15345
▁associate	-15346
erd	-15347
idase	-15348
▁tower	-15349
party	-15350
criptor	-15351
▁dimensional	-15352
▁carriers	-15353
agle	-15354
▁grasp	-15355
Search	-15356
▁Monte	-15357
profile	-15358
▁Executive	-15359
▁photographs	-15360
dehy	-15361
After	-15362
▁Moon	-15363
▁cerv	-15364
▁inspection	-15365
▁amongst	-15366
▁neurolog	-15367
▁discre	-15368
ogenetic	-15369
profit	-15370
▁enterprise	-15371
▁suppressed	-15372
▁compete	-15373
▁accounting	-15374
▁ordering	-15375
▁Mountain	-15376
iga	-15377
sym	-15378
square	-15379
▁Lincoln	-15380
UES	-15381
▁operational	-15382
▁varies	-15383
6_	-15384
SW	-15385
▁helic	-15386
player	-15387
▁buttons	-15388
▁triple	-15389
▁mortgage	-15390
▁freely	-15391
▁dispersion	-15392
▁horror	-15393
▁Size	-15394
▁arises	-15395
▁contributing	-15396
containing	-15397
heart	-15398
▁fasc	-15399
▁unity	-15400
▁volunteers	-15401
▁Account	-15402
DH	-15403
▁Tro	-15404
▁figured	-15405
▁mism	-15406
▁neighbors	-15407
▁necessity	-15408
▁McK	-15409
▁permits	-15410
▁quietly	-15411
▁departure	-15412
arms	-15413
▁ich	-15414
▁nursing	-15415
▁knees	-15416
▁Sin	-15417
▁ordin	-15418
iti	-15419
▁adaptation	-15420
▁Ban	-15421
▁attorneys	-15422
▁prayer	-15423
lasm	-15424
▁passenger	-15425
▁Fall	-15426
▁Sep	-15427
)_{	-15428
curs	-15429
▁ignor	-15430
▁Moscow	-15431
▁realistic	-15432
▁ont	-15433
speed	-15434
unsigned	-15435
▁ét	-15436
▁innocent	-15437
▁interven	-15438
Non	-15439
▁cin	-15440
▁athe	-15441
▁golf	-15442
coll	-15443
avor	-15444
▁motiv	-15445
letter	-15446
atories	-15447
▁comply	-15448
▁prisoners	-15449
agment	-15450
▁(0.0	-15451
▁descending	-15452
▁Syd	-15453
}_2	-15454
incess	-15455
▁courage	-15456
▁balls	-15457
osin	-15458
▁google	-15459
▁neuronal	-15460
▁(4.	-15461
umble	-15462
▁privilege	-15463
▁barg	-15464
▁OUT	-15465
opol	-15466
’,	-15467
Ap	-15468
▁profound	-15469
binant	-15470
▁Adams	-15471
▁configurations	-15472
odot	-15473
▁SV	-15474
▁enrich	-15475
▁Michel	-15476
▁0.25	-15477
~~~~	-15478
also	-15479
▁Awards	-15480
▁FO	-15481
▁hug	-15482
▁tutor	-15483
▁affirmed	-15484
▁bother	-15485
▁considerations	-15486
visor	-15487
▁merits	-15488
ixel	-15489
▁Insurance	-15490
abis	-15491
ylation	-15492
▁Thompson	-15493
4),	-15494
▁insights	-15495
▁sixth	-15496
▁MI	-15497
▁Missouri	-15498
ahoma	-15499
▁Labour	-15500
curities	-15501
DEV	-15502
mus	-15503
▁vic	-15504
ften	-15505
▁Wol	-15506
▁tobacco	-15507
▁Afghanistan	-15508
▁refr	-15509
▁Node	-15510
_:	-15511
▁END	-15512
aro	-15513
▁Pi	-15514
▁engaging	-15515
▁mathematical	-15516
attribute	-15517
heric	-15518
▁ties	-15519
▁charging	-15520
▁interfer	-15521
BER	-15522
inery	-15523
▁Doctor	-15524
▁McG	-15525
emen	-15526
▁Previous	-15527
xa	-15528
▁Question	-15529
▁Country	-15530
▁sentenced	-15531
▁luc	-15532
▁mud	-15533
▁carries	-15534
!!!	-15535
zt	-15536
▁lessons	-15537
▁Visual	-15538
▁Ty	-15539
<<	-15540
^2+^	-15541
▁Maria	-15542
▁postoperative	-15543
liest	-15544
▁recurrence	-15545
▁3.5	-15546
018	-15547
stitutional	-15548
-08-00	-15549
▁jew	-15550
▁purely	-15551
0*	-15552
▁sobre	-15553
▁VI	-15554
▁races	-15555
phones	-15556
amped	-15557
▁exch	-15558
Section	-15559
_1_	-15560
▁Opp	-15561
▁Oil	-15562
▁cooperation	-15563
▁Okl	-15564
children	-15565
▁Pas	-15566
▁parliament	-15567
▁yard	-15568
▁honey	-15569
▁counted	-15570
▁exceptions	-15571
▁12*	-15572
sort	-15573
▁Senior	-15574
▁eine	-15575
▁bathroom	-15576
▁substances	-15577
▁Nich	-15578
▁safely	-15579
▁institutional	-15580
▁gi	-15581
▁burned	-15582
▁ethanol	-15583
ISH	-15584
▁fright	-15585
kk	-15586
Document	-15587
ictional	-15588
▁Email	-15589
dm	-15590
▁suspic	-15591
interface	-15592
▁Netherlands	-15593
genic	-15594
▁Mexican	-15595
017	-15596
▁spite	-15597
▁stolen	-15598
itored	-15599
accept	-15600
[...]
